{
  "<|endoftext|>": 0,
  "<|pad|>": 1,
  "Ā": 2,
  "ā": 3,
  "Ă": 4,
  "ă": 5,
  "Ą": 6,
  "ą": 7,
  "Ć": 8,
  "ć": 9,
  "Ĉ": 10,
  "ĉ": 11,
  "Ċ": 12,
  "ċ": 13,
  "Č": 14,
  "č": 15,
  "Ď": 16,
  "ď": 17,
  "Đ": 18,
  "đ": 19,
  "Ē": 20,
  "ē": 21,
  "Ĕ": 22,
  "ĕ": 23,
  "Ė": 24,
  "ė": 25,
  "Ę": 26,
  "ę": 27,
  "Ě": 28,
  "ě": 29,
  "Ĝ": 30,
  "ĝ": 31,
  "Ğ": 32,
  "ğ": 33,
  "Ġ": 34,
  "!": 35,
  "\"": 36,
  "#": 37,
  "$": 38,
  "%": 39,
  "&": 40,
  "'": 41,
  "(": 42,
  ")": 43,
  "*": 44,
  "+": 45,
  ",": 46,
  "-": 47,
  ".": 48,
  "/": 49,
  "0": 50,
  "1": 51,
  "2": 52,
  "3": 53,
  "4": 54,
  "5": 55,
  "6": 56,
  "7": 57,
  "8": 58,
  "9": 59,
  ":": 60,
  ";": 61,
  "<": 62,
  "=": 63,
  ">": 64,
  "?": 65,
  "@": 66,
  "A": 67,
  "B": 68,
  "C": 69,
  "D": 70,
  "E": 71,
  "F": 72,
  "G": 73,
  "H": 74,
  "I": 75,
  "J": 76,
  "K": 77,
  "L": 78,
  "M": 79,
  "N": 80,
  "O": 81,
  "P": 82,
  "Q": 83,
  "R": 84,
  "S": 85,
  "T": 86,
  "U": 87,
  "V": 88,
  "W": 89,
  "X": 90,
  "Y": 91,
  "Z": 92,
  "[": 93,
  "\\": 94,
  "]": 95,
  "^": 96,
  "_": 97,
  "`": 98,
  "a": 99,
  "b": 100,
  "c": 101,
  "d": 102,
  "e": 103,
  "f": 104,
  "g": 105,
  "h": 106,
  "i": 107,
  "j": 108,
  "k": 109,
  "l": 110,
  "m": 111,
  "n": 112,
  "o": 113,
  "p": 114,
  "q": 115,
  "r": 116,
  "s": 117,
  "t": 118,
  "u": 119,
  "v": 120,
  "w": 121,
  "x": 122,
  "y": 123,
  "z": 124,
  "{": 125,
  "|": 126,
  "}": 127,
  "~": 128,
  "ġ": 129,
  "Ģ": 130,
  "ģ": 131,
  "Ĥ": 132,
  "ĥ": 133,
  "Ħ": 134,
  "ħ": 135,
  "Ĩ": 136,
  "ĩ": 137,
  "Ī": 138,
  "ī": 139,
  "Ĭ": 140,
  "ĭ": 141,
  "Į": 142,
  "į": 143,
  "İ": 144,
  "ı": 145,
  "Ĳ": 146,
  "ĳ": 147,
  "Ĵ": 148,
  "ĵ": 149,
  "Ķ": 150,
  "ķ": 151,
  "ĸ": 152,
  "Ĺ": 153,
  "ĺ": 154,
  "Ļ": 155,
  "ļ": 156,
  "Ľ": 157,
  "ľ": 158,
  "Ŀ": 159,
  "ŀ": 160,
  "Ł": 161,
  "ł": 162,
  "¡": 163,
  "¢": 164,
  "£": 165,
  "¤": 166,
  "¥": 167,
  "¦": 168,
  "§": 169,
  "¨": 170,
  "©": 171,
  "ª": 172,
  "«": 173,
  "¬": 174,
  "Ń": 175,
  "®": 176,
  "¯": 177,
  "°": 178,
  "±": 179,
  "²": 180,
  "³": 181,
  "´": 182,
  "µ": 183,
  "¶": 184,
  "·": 185,
  "¸": 186,
  "¹": 187,
  "º": 188,
  "»": 189,
  "¼": 190,
  "½": 191,
  "¾": 192,
  "¿": 193,
  "À": 194,
  "Á": 195,
  "Â": 196,
  "Ã": 197,
  "Ä": 198,
  "Å": 199,
  "Æ": 200,
  "Ç": 201,
  "È": 202,
  "É": 203,
  "Ê": 204,
  "Ë": 205,
  "Ì": 206,
  "Í": 207,
  "Î": 208,
  "Ï": 209,
  "Ð": 210,
  "Ñ": 211,
  "Ò": 212,
  "Ó": 213,
  "Ô": 214,
  "Õ": 215,
  "Ö": 216,
  "×": 217,
  "Ø": 218,
  "Ù": 219,
  "Ú": 220,
  "Û": 221,
  "Ü": 222,
  "Ý": 223,
  "Þ": 224,
  "ß": 225,
  "à": 226,
  "á": 227,
  "â": 228,
  "ã": 229,
  "ä": 230,
  "å": 231,
  "æ": 232,
  "ç": 233,
  "è": 234,
  "é": 235,
  "ê": 236,
  "ë": 237,
  "ì": 238,
  "í": 239,
  "î": 240,
  "ï": 241,
  "ð": 242,
  "ñ": 243,
  "ò": 244,
  "ó": 245,
  "ô": 246,
  "õ": 247,
  "ö": 248,
  "÷": 249,
  "ø": 250,
  "ù": 251,
  "ú": 252,
  "û": 253,
  "ü": 254,
  "ý": 255,
  "þ": 256,
  "ÿ": 257,
  "Ġt": 258,
  "he": 259,
  "Ġa": 260,
  "in": 261,
  "Ġthe": 262,
  "ĠĠ": 263,
  "Ġs": 264,
  "Ġw": 265,
  "Ġo": 266,
  "re": 267,
  "nd": 268,
  "ha": 269,
  "er": 270,
  "ou": 271,
  "Ġm": 272,
  "Ġb": 273,
  "it": 274,
  "is": 275,
  "âĢ": 276,
  "on": 277,
  "ed": 278,
  "Ġf": 279,
  "Ġc": 280,
  "Ġof": 281,
  "en": 282,
  "Ġand": 283,
  "Ġto": 284,
  "ing": 285,
  "es": 286,
  "or": 287,
  "Ġd": 288,
  "Ġp": 289,
  "ll": 290,
  "Ġin": 291,
  "an": 292,
  "Ġl": 293,
  "ar": 294,
  "Ġn": 295,
  "Ġh": 296,
  "as": 297,
  "at": 298,
  "ĠI": 299,
  "Ġhe": 300,
  "Ġha": 301,
  "om": 302,
  "hat": 303,
  "ĠĠĠĠ": 304,
  "Ġbe": 305,
  "le": 306,
  "ot": 307,
  "Ġg": 308,
  "ic": 309,
  "Ġe": 310,
  "ow": 311,
  "Ġth": 312,
  "ut": 313,
  "ve": 314,
  "se": 315,
  "st": 316,
  "im": 317,
  "ly": 318,
  "Ġy": 319,
  "ld": 320,
  "âĢĻ": 321,
  "id": 322,
  "Ġthat": 323,
  "Ġit": 324,
  "ion": 325,
  "gh": 326,
  "ent": 327,
  "ce": 328,
  "Ġu": 329,
  "al": 330,
  "Ġon": 331,
  "Ġwas": 332,
  "Ġre": 333,
  "ver": 334,
  "ĠT": 335,
  "et": 336,
  "Ġyou": 337,
  "ay": 338,
  "Ġwh": 339,
  "ith": 340,
  "âĢľ": 341,
  "ir": 342,
  "âĢĿ": 343,
  "Ġas": 344,
  "Ġwith": 345,
  "Ġhis": 346,
  "Ġis": 347,
  "ur": 348,
  "Ġfor": 349,
  "Ġwe": 350,
  "Ġst": 351,
  "ad": 352,
  "Ġnot": 353,
  "her": 354,
  "Ġan": 355,
  "ro": 356,
  "ght": 357,
  "ct": 358,
  "ĠA": 359,
  "ch": 360,
  "oo": 361,
  "ri": 362,
  "Ġme": 363,
  "am": 364,
  "Ġat": 365,
  "Ġmy": 366,
  "ould": 367,
  "ter": 368,
  "Ġhad": 369,
  "ĠM": 370,
  "ra": 371,
  "ill": 372,
  "if": 373,
  "ke": 374,
  "ĠS": 375,
  "Ġse": 376,
  "ĠH": 377,
  "Ġsa": 378,
  "Ġher": 379,
  "ain": 380,
  "ĠĠĠ": 381,
  "Ġsu": 382,
  "Ġhim": 383,
  "Ġso": 384,
  "ess": 385,
  "ore": 386,
  "ich": 387,
  "ĠThe": 388,
  "il": 389,
  "Ġk": 390,
  "Ġhave": 391,
  "ĠB": 392,
  "Ġwhich": 393,
  "Ġall": 394,
  "pe": 395,
  "ĠW": 396,
  "all": 397,
  "Ġde": 398,
  "Ġcon": 399,
  "Ġby": 400,
  "ome": 401,
  "red": 402,
  "Ġbut": 403,
  "ul": 404,
  "ge": 405,
  "th": 406,
  "rom": 407,
  "qu": 408,
  "ck": 409,
  "Ġor": 410,
  "ight": 411,
  "Ġdo": 412,
  "Ġup": 413,
  "Ġne": 414,
  "Ġthis": 415,
  "us": 416,
  "ble": 417,
  "ĠâĢľ": 418,
  "âĢĶ": 419,
  "Ġshe": 420,
  "Ġsh": 421,
  "ation": 422,
  "Ġfrom": 423,
  "Ġex": 424,
  "ĠC": 425,
  "est": 426,
  "Ġwhe": 427,
  "and": 428,
  "Ġr": 429,
  "res": 430,
  "ant": 431,
  "Ġthey": 432,
  "Ġman": 433,
  "Ġli": 434,
  "ind": 435,
  "nt": 436,
  "pp": 437,
  "Ġv": 438,
  "ous": 439,
  "Ġare": 440,
  "ust": 441,
  "very": 442,
  "ĠĠĠĠĠĠĠ": 443,
  "lf": 444,
  ".âĢĿ": 445,
  "Ġsaid": 446,
  "ard": 447,
  "our": 448,
  "Ġwere": 449,
  "em": 450,
  "Ġthem": 451,
  "Ġno": 452,
  "Ġone": 453,
  "Ġal": 454,
  "ist": 455,
  "ers": 456,
  "ong": 457,
  "Ġwho": 458,
  "os": 459,
  "ĠP": 460,
  "art": 461,
  "ood": 462,
  "um": 463,
  "Ġkn": 464,
  "Ġint": 465,
  "ak": 466,
  "ame": 467,
  "ol": 468,
  "han": 469,
  "out": 470,
  "Ġcom": 471,
  "Ġfe": 472,
  "Ġthere": 473,
  "Ġtheir": 474,
  "ast": 475,
  "Ġwould": 476,
  "ĠĠĠĠĠĠĠĠ": 477,
  "Ġwor": 478,
  "ound": 479,
  "ig": 480,
  ",âĢĿ": 481,
  "ate": 482,
  "ĠD": 483,
  "Ġle": 484,
  "un": 485,
  "Ġout": 486,
  "ĠO": 487,
  "Ġwill": 488,
  "Ġab": 489,
  "ĠF": 490,
  "ĠL": 491,
  "ity": 492,
  "ook": 493,
  "la": 494,
  "ive": 495,
  "one": 496,
  "ough": 497,
  "ie": 498,
  "ther": 499,
  "od": 500,
  "ure": 501,
  "self": 502,
  "own": 503,
  "ĠG": 504,
  "ag": 505,
  "ven": 506,
  "reat": 507,
  "pt": 508,
  "Ġwhat": 509,
  "ost": 510,
  "itt": 511,
  "Ġpro": 512,
  "ĠHe": 513,
  "Ġwhen": 514,
  "Ġbeen": 515,
  "Ġyour": 516,
  "Ġun": 517,
  "ort": 518,
  "Ġany": 519,
  "ect": 520,
  "Ġj": 521,
  "The": 522,
  "ry": 523,
  "ci": 524,
  "Ġmore": 525,
  "ell": 526,
  "Ġfa": 527,
  "Ġif": 528,
  "ide": 529,
  "ĠN": 530,
  "Ġqu": 531,
  "ĠE": 532,
  "Ġag": 533,
  "ng": 534,
  "ĠAnd": 535,
  "Ġgo": 536,
  "ake": 537,
  "Ġcan": 538,
  "Ġam": 539,
  "Ġsha": 540,
  "ose": 541,
  "Ġother": 542,
  "au": 543,
  "op": 544,
  "Ġtim": 545,
  "ep": 546,
  "el": 547,
  "Ġar": 548,
  "Ġsp": 549,
  "Ġsome": 550,
  "Ġaf": 551,
  "nder": 552,
  "able": 553,
  "ence": 554,
  "Ġinto": 555,
  "hing": 556,
  "Ġus": 557,
  "Ġim": 558,
  "Ġcould": 559,
  "Ġknow": 560,
  "ies": 561,
  "ice": 562,
  "Ġthan": 563,
  "hed": 564,
  "ass": 565,
  "way": 566,
  "Ġvery": 567,
  "Ġour": 568,
  "ance": 569,
  "other": 570,
  "Ġro": 571,
  "Ġthou": 572,
  "ine": 573,
  "Ġtr": 574,
  "Ġlike": 575,
  "Ġdis": 576,
  "ER": 577,
  "iv": 578,
  "ite": 579,
  "per": 580,
  "ings": 581,
  "end": 582,
  "are": 583,
  "fore": 584,
  "ove": 585,
  "cc": 586,
  "ink": 587,
  "ĠIt": 588,
  "ally": 589,
  "wn": 590,
  "Ġen": 591,
  "ĠMr": 592,
  "Ġlook": 593,
  "?âĢĿ": 594,
  "ud": 595,
  "ab": 596,
  "Ġtw": 597,
  "ment": 598,
  "Ġtime": 599,
  "urn": 600,
  "ĠBut": 601,
  "ittle": 602,
  "Ġthen": 603,
  "Ġdid": 604,
  "Ġupon": 605,
  "ress": 606,
  "Ġhas": 607,
  "ions": 608,
  "Ġch": 609,
  "ĠR": 610,
  "Ġad": 611,
  "Ġhand": 612,
  "Ġabout": 613,
  "ue": 614,
  "Ġagain": 615,
  "Ġtoo": 616,
  "Ġlittle": 617,
  "Ġsee": 618,
  "Ġnow": 619,
  "Ġgreat": 620,
  "Ġshould": 621,
  "ick": 622,
  "ather": 623,
  "Ġover": 624,
  "ire": 625,
  "Ġsay": 626,
  "Ġco": 627,
  "Ġcl": 628,
  "pl": 629,
  "Ġbr": 630,
  "ade": 631,
  "Ġonly": 632,
  "--": 633,
  "ang": 634,
  "ish": 635,
  "ack": 636,
  "ars": 637,
  "Ġper": 638,
  "we": 639,
  "ĠJ": 640,
  "ap": 641,
  "ĠTh": 642,
  "Ġpo": 643,
  "uch": 644,
  "Ġmay": 645,
  "ord": 646,
  "Ġgood": 647,
  "Ġpr": 648,
  "Ġdown": 649,
  "ree": 650,
  "ere": 651,
  "Ġhow": 652,
  "Ġpart": 653,
  "ff": 654,
  "ife": 655,
  "Ġsuch": 656,
  "ves": 657,
  "ved": 658,
  "age": 659,
  "Ġoff": 660,
  "ert": 661,
  "Ġevery": 662,
  "Ġmust": 663,
  "Ġits": 664,
  "Ġpe": 665,
  "Ġgr": 666,
  "ness": 667,
  "ach": 668,
  "ary": 669,
  "Ġ_": 670,
  "led": 671,
  "Ġunder": 672,
  "Ġafter": 673,
  "Ġcont": 674,
  "ile": 675,
  "ount": 676,
  "Ġbl": 677,
  "ious": 678,
  "ac": 679,
  "Ġspe": 680,
  "ĠY": 681,
  "ans": 682,
  "ild": 683,
  "Ġob": 684,
  "oy": 685,
  "Ġlong": 686,
  "Ġmuch": 687,
  "ful": 688,
  "Ġpre": 689,
  "irst": 690,
  "ull": 691,
  "Ġnever": 692,
  "Ġday": 693,
  "ving": 694,
  "ward": 695,
  "Ġown": 696,
  "ark": 697,
  "!âĢĿ": 698,
  "Ġmade": 699,
  "Ġbefore": 700,
  "ied": 701,
  "Ġbec": 702,
  "hen": 703,
  "Ġrem": 704,
  "Ġstr": 705,
  "ise": 706,
  "ty": 707,
  "Ã¡": 708,
  "Ġey": 709,
  "Ġfl": 710,
  "ces": 711,
  "Ġcha": 712,
  "Ġtwo": 713,
  "Ġthink": 714,
  "Ġthr": 715,
  "Ġeven": 716,
  "Ġpl": 717,
  "âĢĺ": 718,
  "orn": 719,
  "Ġwell": 720,
  "Ġway": 721,
  "Ġthese": 722,
  "Ġsm": 723,
  "Ġfo": 724,
  "iss": 725,
  "Ġdes": 726,
  "ated": 727,
  "Ġold": 728,
  "Ġwhere": 729,
  "Ġfirst": 730,
  "right": 731,
  "ered": 732,
  "Ġshall": 733,
  "Ġthought": 734,
  "Ġmost": 735,
  "Ġbet": 736,
  "ber": 737,
  "Ġind": 738,
  "ps": 739,
  "Ġcomp": 740,
  "ady": 741,
  "Ġmen": 742,
  "Ġseem": 743,
  "ked": 744,
  "oss": 745,
  "Ġimp": 746,
  "Ġra": 747,
  "ath": 748,
  "Ġbeg": 749,
  "oth": 750,
  "ave": 751,
  "int": 752,
  "iff": 753,
  "ond": 754,
  "ign": 755,
  "..": 756,
  "HE": 757,
  "Ġcame": 758,
  "Ġcome": 759,
  "ons": 760,
  "Ġback": 761,
  "Ġsc": 762,
  "Ġcons": 763,
  "ft": 764,
  "Ġres": 765,
  "HA": 766,
  "ried": 767,
  "Ġmake": 768,
  "li": 769,
  "Ġbeing": 770,
  "ever": 771,
  "Ġhimself": 772,
  "ouse": 773,
  "omet": 774,
  "ily": 775,
  "Ġthose": 776,
  "Ġmight": 777,
  "llow": 778,
  "Ġlife": 779,
  "Ġho": 780,
  "Ġlet": 781,
  "Ġcomm": 782,
  "Ġhere": 783,
  "Ġcall": 784,
  "ause": 785,
  "Ġgl": 786,
  "ĠV": 787,
  "Ġwithout": 788,
  "ens": 789,
  "Ġpass": 790,
  "Ġpla": 791,
  "ĠIn": 792,
  "ced": 793,
  "Ġop": 794,
  "TER": 795,
  "Ġthings": 796,
  "hes": 797,
  "ĠShe": 798,
  "ĠK": 799,
  "Ġye": 800,
  "les": 801,
  "man": 802,
  "og": 803,
  "ne": 804,
  "Ġjust": 805,
  "the": 806,
  "Ġacc": 807,
  "Ġsame": 808,
  "II": 809,
  "ject": 810,
  "Ġatt": 811,
  "Ġeyes": 812,
  "Ġhead": 813,
  "ock": 814,
  "ub": 815,
  "Ġaway": 816,
  "Ġthrough": 817,
  "ON": 818,
  "ened": 819,
  "ople": 820,
  "Ġbel": 821,
  "ĠĠĠĠĠ": 822,
  "ase": 823,
  "ible": 824,
  "Ġword": 825,
  "Ġke": 826,
  "ory": 827,
  "ition": 828,
  "Ġsomet": 829,
  "Ġstill": 830,
  "Ġturn": 831,
  "Ġwent": 832,
  "Ġ(": 833,
  "aw": 834,
  "less": 835,
  "EN": 836,
  "Ġap": 837,
  "Ġnat": 838,
  "Ìĥ": 839,
  "Ġwr": 840,
  "ction": 841,
  "Ġget": 842,
  "so": 843,
  "hy": 844,
  "ult": 845,
  "Ġnothing": 846,
  "ip": 847,
  "ations": 848,
  "ĠSt": 849,
  "ertain": 850,
  "Ġfri": 851,
  "Ġpres": 852,
  "cy": 853,
  "Ġlove": 854,
  "ical": 855,
  "ĠâĢĺ": 856,
  "Ġear": 857,
  "Ġyet": 858,
  "Ġmany": 859,
  "Ġmind": 860,
  "Ġput": 861,
  "ither": 862,
  "Ġapp": 863,
  "Ġpeople": 864,
  "Ġnight": 865,
  "pect": 866,
  "CHA": 867,
  "row": 868,
  "Ġdiff": 869,
  "sel": 870,
  "Ġent": 871,
  "Ġte": 872,
  "Ġser": 873,
  "Ġem": 874,
  "igh": 875,
  "ways": 876,
  "IN": 877,
  "cl": 878,
  "Ġend": 879,
  "thing": 880,
  "Ġfriend": 881,
  "PTER": 882,
  "Ġchild": 883,
  "Ġwant": 884,
  "Ġfound": 885,
  "Ġhar": 886,
  "Ġdist": 887,
  "ors": 888,
  "Ġmat": 889,
  "CHAPTER": 890,
  "ew": 891,
  "ody": 892,
  "Ġyoung": 893,
  "ling": 894,
  "ru": 895,
  "Ġroom": 896,
  "Ġwork": 897,
  "Ġtell": 898,
  "Ġthough": 899,
  "Ġtake": 900,
  "Ġanother": 901,
  "Ġwat": 902,
  "Ġever": 903,
  "ract": 904,
  "Ġsl": 905,
  "aking": 906,
  "ower": 907,
  "Ġac": 908,
  "Ġlast": 909,
  "ĠYou": 910,
  "ren": 911,
  "Ġface": 912,
  "ĠThere": 913,
  "Ġhouse": 914,
  "ĠThat": 915,
  "Ġright": 916,
  "ener": 917,
  "ian": 918,
  "alk": 919,
  "ĠWhat": 920,
  "Ġ\"": 921,
  "Ġfather": 922,
  "iz": 923,
  "Ġworld": 924,
  "Ġthing": 925,
  "Ġalways": 926,
  "ently": 927,
  "Ġple": 928,
  "Ġret": 929,
  "Ġpers": 930,
  "ince": 931,
  "Ġsub": 932,
  "Ġsaw": 933,
  "te": 934,
  "ted": 935,
  "Ġwom": 936,
  "Ġthy": 937,
  "Ġdoor": 938,
  "med": 939,
  "It": 940,
  "Ġcar": 941,
  "OR": 942,
  "Ġappe": 943,
  "Ġrep": 944,
  "Ġfar": 945,
  "Ġlooked": 946,
  "Ġplace": 947,
  "ĠĠĠĠĠĠĠĠĠĠĠĠĠĠĠĠ": 948,
  "Ġkind": 949,
  "Ġinst": 950,
  "Ġnew": 951,
  "ix": 952,
  "for": 953,
  "Ġdon": 954,
  "Ġmother": 955,
  "cess": 956,
  "not": 957,
  "ared": 958,
  "ĠWe": 959,
  "Ġheart": 960,
  "uth": 961,
  "arn": 962,
  "Ġsupp": 963,
  "ĠFor": 964,
  "lt": 965,
  "ĠThey": 966,
  "Ġonce": 967,
  "Ġmyself": 968,
  "cept": 969,
  "ged": 970,
  "Ġhapp": 971,
  "ished": 972,
  "uck": 973,
  "ĠThis": 974,
  "ĠĠĠĠĠĠ": 975,
  "ple": 976,
  "Ġcount": 977,
  "He": 978,
  "Ġcour": 979,
  "Ġlight": 980,
  "Ġgive": 981,
  "Ġbo": 982,
  "ĠTo": 983,
  "fect": 984,
  "Ġtra": 985,
  "ual": 986,
  "ict": 987,
  "Ġsec": 988,
  "av": 989,
  "Ġwhile": 990,
  "ĠU": 991,
  "ho": 992,
  "Ġsomething": 993,
  "Ġfind": 994,
  "air": 995,
  "Ġposs": 996,
  "Ġset": 997,
  "Ġans": 998,
  "Ġagainst": 999,
  "mer": 1000,
  "ĠSo": 1001,
  "Ġleft": 1002,
  "ret": 1003,
  "Ġang": 1004,
  "Ġbecause": 1005,
  "selves": 1006,
  "Ġbre": 1007,
  "ents": 1008,
  "Ġunt": 1009,
  "Ġdisc": 1010,
  "ought": 1011,
  "here": 1012,
  "Ġlo": 1013,
  "ense": 1014,
  "vers": 1015,
  "get": 1016,
  "AN": 1017,
  "Ġcertain": 1018,
  "Ġhands": 1019,
  "und": 1020,
  "ms": 1021,
  "Ġthee": 1022,
  "Ġseemed": 1023,
  "ool": 1024,
  "Ġwind": 1025,
  "ined": 1026,
  "ace": 1027,
  "ting": 1028,
  "Ġnor": 1029,
  "Ġname": 1030,
  "Ġfeel": 1031,
  "pped": 1032,
  "Ġquite": 1033,
  "its": 1034,
  "LE": 1035,
  "Ġthree": 1036,
  "ason": 1037,
  "ss": 1038,
  "Ġtook": 1039,
  "eth": 1040,
  "ner": 1041,
  "AR": 1042,
  "ters": 1043,
  "dd": 1044,
  "And": 1045,
  "Ġrec": 1046,
  "ial": 1047,
  "Ġsat": 1048,
  "Ġexp": 1049,
  "Ġfollow": 1050,
  "Ġgot": 1051,
  "Ġread": 1052,
  "Ġrel": 1053,
  "ular": 1054,
  "Ġmar": 1055,
  "Ġgener": 1056,
  "Ġheard": 1057,
  "iness": 1058,
  "ĠIf": 1059,
  "ont": 1060,
  "Ġhum": 1061,
  "Ġass": 1062,
  "oub": 1063,
  "ins": 1064,
  "Ġalso": 1065,
  "wards": 1066,
  "ĠMrs": 1067,
  "ung": 1068,
  "unt": 1069,
  "Ġsir": 1070,
  "ib": 1071,
  "rew": 1072,
  "Ġ1": 1073,
  "Ġwa": 1074,
  "Ġact": 1075,
  "Ġbelie": 1076,
  "Ġrest": 1077,
  "Ġeach": 1078,
  "ern": 1079,
  "Ġadv": 1080,
  "lic": 1081,
  "Ġconf": 1082,
  "Ġchan": 1083,
  "ween": 1084,
  "ank": 1085,
  "ĠTHE": 1086,
  "Ġyears": 1087,
  "eed": 1088,
  "Ġcalled": 1089,
  "Ġide": 1090,
  "most": 1091,
  "Ġord": 1092,
  "You": 1093,
  "Ġsw": 1094,
  "Ġgra": 1095,
  "Ġmom": 1096,
  "Ġcur": 1097,
  "aught": 1098,
  "entle": 1099,
  "gg": 1100,
  "Ġpleas": 1101,
  "ĠX": 1102,
  "Ġsil": 1103,
  "ĠMiss": 1104,
  "Ġreg": 1105,
  "Ġside": 1106,
  "ia": 1107,
  "ĠAs": 1108,
  "Ġround": 1109,
  "Ġsoon": 1110,
  "Ġev": 1111,
  "be": 1112,
  "Ġdone": 1113,
  "Ġinc": 1114,
  "ched": 1115,
  "Ġvo": 1116,
  "aut": 1117,
  "Ġext": 1118,
  "ures": 1119,
  "Ġcr": 1120,
  "Ġcle": 1121,
  "Ġsur": 1122,
  "Ġwhole": 1123,
  "ĠThen": 1124,
  "Ġbetween": 1125,
  "Ġart": 1126,
  "ĠWhen": 1127,
  "ised": 1128,
  "'s": 1129,
  "Ġhear": 1130,
  "Ġwar": 1131,
  "ates": 1132,
  "Ġocc": 1133,
  "ĠAt": 1134,
  "Ġgoing": 1135,
  "Ġdra": 1136,
  "But": 1137,
  "ail": 1138,
  "Ġstre": 1139,
  "Ġasked": 1140,
  "ĠGod": 1141,
  "Ġbetter": 1142,
  "iet": 1143,
  "me": 1144,
  "Ġboth": 1145,
  "Ġamong": 1146,
  "ired": 1147,
  "ier": 1148,
  "Ġmo": 1149,
  "Ġinf": 1150,
  "Ġpur": 1151,
  "ating": 1152,
  "Ġgu": 1153,
  "ited": 1154,
  "Ġenough": 1155,
  "Ġbegan": 1156,
  "Ġuse": 1157,
  "ten": 1158,
  "Ġhard": 1159,
  "xt": 1160,
  "Ġhalf": 1161,
  "up": 1162,
  "ute": 1163,
  "Ġwords": 1164,
  "ully": 1165,
  "nce": 1166,
  "Ġspeak": 1167,
  "Ġdiffere": 1168,
  "Ġgentle": 1169,
  "irl": 1170,
  "Ġche": 1171,
  "haps": 1172,
  "Ġmoment": 1173,
  "du": 1174,
  "Ġnear": 1175,
  "lack": 1176,
  "land": 1177,
  "Ġmean": 1178,
  "Ġless": 1179,
  "Ġkeep": 1180,
  "Ġseen": 1181,
  "Ġstand": 1182,
  "ained": 1183,
  "Ġknew": 1184,
  "Ġcannot": 1185,
  "Ġreturn": 1186,
  "Ġref": 1187,
  "Ġpoint": 1188,
  "osed": 1189,
  "Ġrather": 1190,
  "Ġsle": 1191,
  "Ġdear": 1192,
  "Ġ[": 1193,
  "Ġcare": 1194,
  "Ġboy": 1195,
  "ah": 1196,
  "ows": 1197,
  "Ġwhom": 1198,
  "ĠBe": 1199,
  "Ġdoes": 1200,
  "Ġpower": 1201,
  "Ġel": 1202,
  "oke": 1203,
  "Ġhome": 1204,
  "Ġng": 1205,
  "Ġwoman": 1206,
  "ĠNo": 1207,
  "._": 1208,
  "Ġadd": 1209,
  "Ġbed": 1210,
  "aid": 1211,
  "Ġtre": 1212,
  "ser": 1213,
  "Ġlar": 1214,
  "Ġperson": 1215,
  "Ġmon": 1216,
  "Ġunderst": 1217,
  "oul": 1218,
  "Th": 1219,
  "ĠâĢĻ": 1220,
  "Ġfelt": 1221,
  "Ġtold": 1222,
  "Ġbro": 1223,
  "ross": 1224,
  "Ġhaving": 1225,
  "ene": 1226,
  "Ġins": 1227,
  "Ġthemselves": 1228,
  "Ġreason": 1229,
  "aster": 1230,
  "Ġca": 1231,
  "Ġdark": 1232,
  "ST": 1233,
  "Ġfam": 1234,
  "Ġnature": 1235,
  "Ġpresent": 1236,
  "ention": 1237,
  "vel": 1238,
  "oud": 1239,
  "Ġsmall": 1240,
  "Ã³": 1241,
  "Ġinter": 1242,
  "ks": 1243,
  "Ġhour": 1244,
  "Ġothers": 1245,
  "ĠMy": 1246,
  "erest": 1247,
  "Ġsim": 1248,
  "Ġquest": 1249,
  "Ġtak": 1250,
  "oc": 1251,
  "Ġgirl": 1252,
  "Ġstood": 1253,
  "Ġinv": 1254,
  "ĠJo": 1255,
  "Ġbus": 1256,
  "ĠOF": 1257,
  "Ġturned": 1258,
  "Ġwo": 1259,
  "Ġfew": 1260,
  "Ġlay": 1261,
  "ities": 1262,
  "aint": 1263,
  "Ġbest": 1264,
  "Ġexc": 1265,
  "ning": 1266,
  "Ġtill": 1267,
  "Ġhel": 1268,
  "orning": 1269,
  "Ġna": 1270,
  "Ġopen": 1271,
  "What": 1272,
  "Ġcourse": 1273,
  "ange": 1274,
  "act": 1275,
  "Ġter": 1276,
  "Ġalmost": 1277,
  "idd": 1278,
  "ering": 1279,
  "pter": 1280,
  "Ġvoice": 1281,
  "Ġhon": 1282,
  "Ġeff": 1283,
  "cri": 1284,
  "Ġswe": 1285,
  "Ġlaw": 1286,
  "Ġsk": 1287,
  "Ġsure": 1288,
  "Ġfore": 1289,
  "ery": 1290,
  "ĠHis": 1291,
  "har": 1292,
  "Ġbeaut": 1293,
  "Ġcried": 1294,
  "Ġpoor": 1295,
  "Ġfact": 1296,
  "oun": 1297,
  "Ġland": 1298,
  "light": 1299,
  "fort": 1300,
  "Ġgave": 1301,
  "ately": 1302,
  "ES": 1303,
  "Ġtrue": 1304,
  "ale": 1305,
  "Ġdre": 1306,
  "ceiv": 1307,
  "Ġhigh": 1308,
  "Ġmorning": 1309,
  "Ġmin": 1310,
  "Ġhor": 1311,
  "Ġtoget": 1312,
  "Ġtogether": 1313,
  "Ġtalk": 1314,
  "Ġdec": 1315,
  "Ġobject": 1316,
  "Ġshow": 1317,
  "als": 1318,
  "Ġanything": 1319,
  "AC": 1320,
  "Ġcommon": 1321,
  "Ġlive": 1322,
  "Ġlearn": 1323,
  "Ġinterest": 1324,
  "Ġblack": 1325,
  "Ġdr": 1326,
  "Ġneed": 1327,
  "Ġhowever": 1328,
  "Ġdoub": 1329,
  "ken": 1330,
  "Ġcontin": 1331,
  "Ġste": 1332,
  "Ġdeath": 1333,
  "mb": 1334,
  "Ġwhite": 1335,
  "Ġitself": 1336,
  "ield": 1337,
  "Ġwhose": 1338,
  "Ġcountry": 1339,
  "Ġbody": 1340,
  "Ġbook": 1341,
  "Ġthus": 1342,
  "Ġserv": 1343,
  "ĠHow": 1344,
  "Ġsince": 1345,
  "Ġair": 1346,
  "Ġsuff": 1347,
  "king": 1348,
  "Ġplay": 1349,
  "ĠAn": 1350,
  "ments": 1351,
  "Ġri": 1352,
  "ably": 1353,
  "Ġindeed": 1354,
  "men": 1355,
  "Ġremem": 1356,
  "Ġcond": 1357,
  "hapter": 1358,
  "Ġfr": 1359,
  "Ġfall": 1360,
  "Ġsoul": 1361,
  "att": 1362,
  "Ġvis": 1363,
  "fully": 1364,
  "Ġhold": 1365,
  "OL": 1366,
  "Ġlooking": 1367,
  "ash": 1368,
  "ev": 1369,
  "AL": 1370,
  "iven": 1371,
  "Ġsun": 1372,
  "oney": 1373,
  "Ġfire": 1374,
  "Ġgre": 1375,
  "sh": 1376,
  "wer": 1377,
  "Ġmatter": 1378,
  "of": 1379,
  "Ġaw": 1380,
  "ience": 1381,
  "Ġherself": 1382,
  "to": 1383,
  "outh": 1384,
  "Ġfull": 1385,
  "dden": 1386,
  "ants": 1387,
  "cious": 1388,
  "AT": 1389,
  "Ġlarge": 1390,
  "Ġsent": 1391,
  "Ġspir": 1392,
  "ressed": 1393,
  "Ġeither": 1394,
  "Ġalone": 1395,
  "Ġrun": 1396,
  "In": 1397,
  ",âĢĻ": 1398,
  "anger": 1399,
  "aring": 1400,
  "ility": 1401,
  "Ġfour": 1402,
  "Ġreally": 1403,
  "pr": 1404,
  "imes": 1405,
  "Ġleast": 1406,
  "Ġsound": 1407,
  "Ġunderstand": 1408,
  "Ġearth": 1409,
  "Ġwater": 1410,
  "Ġprin": 1411,
  "ancy": 1412,
  "Ġchildren": 1413,
  "ets": 1414,
  "Ġsudden": 1415,
  "ceed": 1416,
  "ĠAl": 1417,
  "Ġdet": 1418,
  "ĠMar": 1419,
  "Ġdire": 1420,
  "Ġprop": 1421,
  "Ġson": 1422,
  "Ġunc": 1423,
  "ides": 1424,
  "ĠEng": 1425,
  "Ġreal": 1426,
  "Ġform": 1427,
  "Ġbrought": 1428,
  "urd": 1429,
  "Ġtimes": 1430,
  "Ġsubject": 1431,
  "ches": 1432,
  "ider": 1433,
  "Ġbu": 1434,
  "ready": 1435,
  "Ġdifferent": 1436,
  ".âĢĻ": 1437,
  "Ġobser": 1438,
  "Ġdoubt": 1439,
  "iting": 1440,
  "by": 1441,
  "Ġperhaps": 1442,
  "Ġnecess": 1443,
  ",âĢĶ": 1444,
  "Ġsea": 1445,
  "RO": 1446,
  "Ġpol": 1447,
  "Ġhuman": 1448,
  "ime": 1449,
  "ured": 1450,
  "ĠCh": 1451,
  "gs": 1452,
  "but": 1453,
  "Ġlord": 1454,
  "Ã¡ng": 1455,
  "ief": 1456,
  "Ġhelp": 1457,
  "irc": 1458,
  "IC": 1459,
  "body": 1460,
  "that": 1461,
  "ude": 1462,
  "Ġlau": 1463,
  "No": 1464,
  "ĠĠĠĠĠĠĠĠĠĠĠ": 1465,
  "Ġadm": 1466,
  "az": 1467,
  "Ġpret": 1468,
  "Ġtherefore": 1469,
  "Ġgone": 1470,
  "hind": 1471,
  "osition": 1472,
  "ee": 1473,
  "ĠIs": 1474,
  "ister": 1475,
  "ually": 1476,
  "Ġdays": 1477,
  "Ġoften": 1478,
  "Ġnext": 1479,
  "Ġpartic": 1480,
  "Ġalong": 1481,
  "Ġbelieve": 1482,
  "Ġsoci": 1483,
  "Ġfear": 1484,
  "Ġjud": 1485,
  "ov": 1486,
  "Ġill": 1487,
  "Ġopp": 1488,
  "Ġalready": 1489,
  "ING": 1490,
  "Ġsn": 1491,
  "Ġshort": 1492,
  "Ġtable": 1493,
  "ÃŃ": 1494,
  "Ġeas": 1495,
  "ED": 1496,
  "ĠAr": 1497,
  "Ġimag": 1498,
  "._]": 1499,
  "any": 1500,
  "Ġdead": 1501,
  "Ġsleep": 1502,
  "ives": 1503,
  "Ġwhy": 1504,
  "Ġbrother": 1505,
  "Ġgiven": 1506,
  "Ġtowards": 1507,
  "ĠSc": 1508,
  "Ġchar": 1509,
  "Ġhope": 1510,
  "Ġcol": 1511,
  "Ġfellow": 1512,
  "Ġelse": 1513,
  "over": 1514,
  "ott": 1515,
  "Ġsing": 1516,
  "Ġes": 1517,
  "Ġbehind": 1518,
  "let": 1519,
  "Ġcirc": 1520,
  "Ġsort": 1521,
  "Ġhath": 1522,
  ",\"": 1523,
  "Ġcase": 1524,
  "gr": 1525,
  "Ġquestion": 1526,
  "Ġmod": 1527,
  "Ġph": 1528,
  "Ġtaken": 1529,
  "Ġsense": 1530,
  "ided": 1531,
  "aven": 1532,
  "Ġnum": 1533,
  "Ġstra": 1534,
  "Ġtruth": 1535,
  "ph": 1536,
  "Ġmeans": 1537,
  "Ġacqu": 1538,
  "Ġdef": 1539,
  "Ġabs": 1540,
  "ural": 1541,
  "Ġwhether": 1542,
  "Ġwithin": 1543,
  "Ġwife": 1544,
  "ird": 1545,
  "ledge": 1546,
  "Ġequ": 1547,
  "Ġlady": 1548,
  "Ġfair": 1549,
  "ying": 1550,
  "empt": 1551,
  "Ġrepl": 1552,
  "Ġfeet": 1553,
  "ains": 1554,
  "ety": 1555,
  "Chapter": 1556,
  "We": 1557,
  "ĠOf": 1558,
  "Ġaff": 1559,
  "Ġarm": 1560,
  "ued": 1561,
  "Ġblood": 1562,
  "Ġmoney": 1563,
  "ĠWith": 1564,
  "Ġeye": 1565,
  "ution": 1566,
  "Ġexper": 1567,
  "Ġdri": 1568,
  "iy": 1569,
  "ative": 1570,
  "undred": 1571,
  "Ġpat": 1572,
  "Ġpri": 1573,
  "Ġwonder": 1574,
  "Ġpar": 1575,
  "Ġstate": 1576,
  "THE": 1577,
  "Ġclose": 1578,
  "Ġstrong": 1579,
  "enty": 1580,
  "Ġused": 1581,
  "Ġmere": 1582,
  "day": 1583,
  "bed": 1584,
  "br": 1585,
  "ublic": 1586,
  "Ġed": 1587,
  "TH": 1588,
  "wered": 1589,
  "used": 1590,
  "Ġking": 1591,
  "Ġeverything": 1592,
  "amp": 1593,
  "ught": 1594,
  "Ġdep": 1595,
  "ceived": 1596,
  "Ġmet": 1597,
  "Ġproper": 1598,
  "owed": 1599,
  "ĠDo": 1600,
  "Ġwall": 1601,
  "Ġdeep": 1602,
  "ident": 1603,
  "uring": 1604,
  "Ġleave": 1605,
  "orrow": 1606,
  "Ġanswered": 1607,
  "iled": 1608,
  "Ġsecond": 1609,
  "ob": 1610,
  "Ġopin": 1611,
  "akes": 1612,
  "irt": 1613,
  "ĠNow": 1614,
  "She": 1615,
  "eng": 1616,
  "cul": 1617,
  "Ġorder": 1618,
  "erv": 1619,
  "Well": 1620,
  "Ġhair": 1621,
  "Ġfur": 1622,
  "Ġhundred": 1623,
  "ĠOn": 1624,
  "ances": 1625,
  "Ġanswer": 1626,
  "Ġdro": 1627,
  "UR": 1628,
  "Ġground": 1629,
  "Ġmer": 1630,
  "There": 1631,
  "Ġuntil": 1632,
  "ats": 1633,
  "Ġexist": 1634,
  "Ġperfect": 1635,
  "Ġabove": 1636,
  "use": 1637,
  "ĠWh": 1638,
  "Ġwalk": 1639,
  "Ġconsider": 1640,
  "Ġbes": 1641,
  "Ġsy": 1642,
  "Ġbecome": 1643,
  "Ġcor": 1644,
  "Ġfin": 1645,
  "ages": 1646,
  "Ġbusiness": 1647,
  "rying": 1648,
  "Ġstart": 1649,
  "Ġwish": 1650,
  "Ġidea": 1651,
  "alked": 1652,
  "Ġreplied": 1653,
  "Ġsign": 1654,
  "Ġgeneral": 1655,
  "ific": 1656,
  "Ġdisp": 1657,
  "Ġstrange": 1658,
  "Ġparticular": 1659,
  "gin": 1660,
  "ey": 1661,
  "Ġtri": 1662,
  "Ġmanner": 1663,
  "Ġwindow": 1664,
  "Ġmis": 1665,
  "Ġappear": 1666,
  "Ġay": 1667,
  "Ġmist": 1668,
  "iew": 1669,
  "bit": 1670,
  "ĠFr": 1671,
  "ient": 1672,
  "ef": 1673,
  "Ġcharact": 1674,
  "Ġpossible": 1675,
  "uff": 1676,
  "uss": 1677,
  "Ġcap": 1678,
  ".]": 1679,
  "ĠAll": 1680,
  "Ġcreat": 1681,
  "ality": 1682,
  "ians": 1683,
  "Ġbra": 1684,
  "Ġsens": 1685,
  "ching": 1686,
  "....": 1687,
  "ote": 1688,
  "Ġrespect": 1689,
  "Ġmine": 1690,
  "Ġpassed": 1691,
  "ug": 1692,
  "Ġtrans": 1693,
  "Ġdev": 1694,
  "Ġlat": 1695,
  "Ġval": 1696,
  "That": 1697,
  "ctor": 1698,
  "Ġvar": 1699,
  "Ġele": 1700,
  "Ġred": 1701,
  "Ġknown": 1702,
  "Ġlab": 1703,
  "Ġstud": 1704,
  "cing": 1705,
  "iful": 1706,
  "Oh": 1707,
  "cha": 1708,
  "ination": 1709,
  "Ġhur": 1710,
  "Ġest": 1711,
  "pend": 1712,
  "Ġdaught": 1713,
  "Ġfriends": 1714,
  "Ġgentleman": 1715,
  "Yes": 1716,
  "Ġexpress": 1717,
  "Ġsix": 1718,
  "Ġprom": 1719,
  "oor": 1720,
  "Ġhast": 1721,
  "Ġspirit": 1722,
  "Ġfree": 1723,
  "Ġexpect": 1724,
  "Ġoccas": 1725,
  "ek": 1726,
  "Ġsit": 1727,
  "Ġbad": 1728,
  "Mr": 1729,
  "form": 1730,
  "ining": 1731,
  "Ġhus": 1732,
  "Ã¢": 1733,
  "Ġsch": 1734,
  "ended": 1735,
  "This": 1736,
  "ec": 1737,
  "Ġbring": 1738,
  "Ġsever": 1739,
  "Ġclear": 1740,
  ".\"": 1741,
  "LI": 1742,
  "Ġconst": 1743,
  "Ġmaster": 1744,
  "Ġfell": 1745,
  "itting": 1746,
  "tern": 1747,
  "[_": 1748,
  "Ġbegin": 1749,
  "Ġir": 1750,
  "Ġfre": 1751,
  "Ġdiffic": 1752,
  "ND": 1753,
  "ĠHer": 1754,
  "Ġfort": 1755,
  "Ġfoot": 1756,
  "cies": 1757,
  "Ġdem": 1758,
  "Ġeffect": 1759,
  "Ġunto": 1760,
  "Ġlost": 1761,
  "Ġask": 1762,
  "ousand": 1763,
  "SE": 1764,
  "Ġremark": 1765,
  "Ġexpl": 1766,
  "Ġlist": 1767,
  "Ġquick": 1768,
  "lish": 1769,
  "ĠWhy": 1770,
  "Ġsla": 1771,
  "ism": 1772,
  "Ġpa": 1773,
  "Ġtou": 1774,
  "oon": 1775,
  "III": 1776,
  "Ġconc": 1777,
  "fter": 1778,
  "Ġlead": 1779,
  "ury": 1780,
  "isf": 1781,
  "ptain": 1782,
  "une": 1783,
  "Ġself": 1784,
  "ump": 1785,
  "owing": 1786,
  "Ġkept": 1787,
  "ĠQ": 1788,
  "Ġauth": 1789,
  "ane": 1790,
  "ĠUn": 1791,
  "Ġten": 1792,
  "Ġthousand": 1793,
  "Ġmil": 1794,
  "wh": 1795,
  "Ġcorn": 1796,
  "ising": 1797,
  "Ġprof": 1798,
  "Ġknowledge": 1799,
  "hn": 1800,
  "overed": 1801,
  "Ġcomple": 1802,
  "Ġappro": 1803,
  "Ġimport": 1804,
  "Ġcold": 1805,
  "Ġsight": 1806,
  "ĠNot": 1807,
  "uc": 1808,
  "airs": 1809,
  "iously": 1810,
  "reg": 1811,
  "Ġage": 1812,
  "Ġfamily": 1813,
  "inct": 1814,
  "Ġprinci": 1815,
  "Ġbreat": 1816,
  "Ġevening": 1817,
  "Ġexam": 1818,
  "IS": 1819,
  "Ġslow": 1820,
  "Ġcoming": 1821,
  "rist": 1822,
  "Ġsum": 1823,
  "itch": 1824,
  "Ġexcept": 1825,
  "_.": 1826,
  "oll": 1827,
  "band": 1828,
  "ices": 1829,
  "Ġfive": 1830,
  "Ġable": 1831,
  "Ġstep": 1832,
  "Ġmouth": 1833,
  "Ġview": 1834,
  "Ġpray": 1835,
  "Ġmark": 1836,
  "Ġmeet": 1837,
  "Ġsweet": 1838,
  "Ġseems": 1839,
  "Ġsometimes": 1840,
  "Ġheld": 1841,
  "Ġrequ": 1842,
  "Ġaccount": 1843,
  "Ġdraw": 1844,
  "They": 1845,
  "Ġsuper": 1846,
  "Ġpain": 1847,
  "agn": 1848,
  "Ex": 1849,
  "Ġregard": 1850,
  "Ġcomes": 1851,
  "Ġsuddenly": 1852,
  "Ġheaven": 1853,
  "ope": 1854,
  "Ġseveral": 1855,
  "Ġtown": 1856,
  "arent": 1857,
  "LL": 1858,
  "alth": 1859,
  "ames": 1860,
  "Ġsays": 1861,
  "Ġbar": 1862,
  "de": 1863,
  "Ġworth": 1864,
  "Ġpossess": 1865,
  "To": 1866,
  "ring": 1867,
  "Ġma": 1868,
  "Ġstay": 1869,
  "Ġlow": 1870,
  "ĠWell": 1871,
  "Ġwood": 1872,
  "Ġcharacter": 1873,
  "Ġremember": 1874,
  "ines": 1875,
  "Ġbit": 1876,
  "iar": 1877,
  "ĠPr": 1878,
  "Ġmaking": 1879,
  "io": 1880,
  "Ġprev": 1881,
  "Ġgold": 1882,
  "When": 1883,
  "oura": 1884,
  "ĠLet": 1885,
  "Ġpublic": 1886,
  "Ġheav": 1887,
  "Ġsto": 1888,
  "Ġyear": 1889,
  "XX": 1890,
  "ached": 1891,
  "Ġdiv": 1892,
  "Ġhat": 1893,
  "Ġ.": 1894,
  "IO": 1895,
  "Ġroad": 1896,
  "Ã©": 1897,
  "My": 1898,
  "ĠOne": 1899,
  "Ġquiet": 1900,
  "Ġletter": 1901,
  "Ġfav": 1902,
  "Ġprodu": 1903,
  "Ġlonger": 1904,
  "Ġarms": 1905,
  "ics": 1906,
  "Ġwomen": 1907,
  "Ġbecame": 1908,
  "nter": 1909,
  "Ġpast": 1910,
  "ead": 1911,
  "Ġkill": 1912,
  "ask": 1913,
  "medi": 1914,
  "fe": 1915,
  "Ġran": 1916,
  "CE": 1917,
  "ls": 1918,
  "omm": 1919,
  "ĠKing": 1920,
  "Ġdirect": 1921,
  "angu": 1922,
  "side": 1923,
  "Ġmus": 1924,
  "Ġbreak": 1925,
  "Ãł": 1926,
  "Ġlea": 1927,
  "Ġsqu": 1928,
  "Ġdest": 1929,
  "Ġsatisf": 1930,
  "old": 1931,
  "Ġspoke": 1932,
  "itude": 1933,
  "ĠNor": 1934,
  "Ġoccasion": 1935,
  "Ġsister": 1936,
  "ison": 1937,
  "cience": 1938,
  "Ġhusband": 1939,
  "Ġnone": 1940,
  "ences": 1941,
  "ouble": 1942,
  "vern": 1943,
  "Ġnatural": 1944,
  "ilos": 1945,
  "Ġaround": 1946,
  "Ġbur": 1947,
  "Ġnumber": 1948,
  "Ġbig": 1949,
  "sequ": 1950,
  "Ġreturned": 1951,
  "Ġsuppose": 1952,
  "Ġcontr": 1953,
  "ilosop": 1954,
  "itted": 1955,
  "Ġauthor": 1956,
  "though": 1957,
  "hys": 1958,
  "raid": 1959,
  "ift": 1960,
  "Ġpleasure": 1961,
  "Ġwanted": 1962,
  "umb": 1963,
  "LA": 1964,
  "ging": 1965,
  "ĠJohn": 1966,
  "Ġbeautiful": 1967,
  "Ġpurp": 1968,
  "Ġcre": 1969,
  "Ġforg": 1970,
  "ĠSp": 1971,
  "na": 1972,
  "lect": 1973,
  "Ġready": 1974,
  "Ġstri": 1975,
  "),": 1976,
  "ham": 1977,
  "ists": 1978,
  "laim": 1979,
  "itions": 1980,
  "Ġwon": 1981,
  "Ġpie": 1982,
  "Then": 1983,
  "Ġpretty": 1984,
  "ized": 1985,
  "ior": 1986,
  "Ġdelight": 1987,
  "ror": 1988,
  "ENT": 1989,
  "ĠInd": 1990,
  "Ġpract": 1991,
  "ingly": 1992,
  "Ġmad": 1993,
  "IG": 1994,
  "ORA": 1995,
  "Ġaffect": 1996,
  "like": 1997,
  "ceive": 1998,
  "aded": 1999,
  "Ġprob": 2000,
  "ours": 2001,
  "Ġaccord": 2002,
  "omp": 2003,
  "ges": 2004,
  "Ġfool": 2005,
  "inary": 2006,
  "ĠThou": 2007,
  "Ġought": 2008,
  "IR": 2009,
  "ivid": 2010,
  "Enter": 2011,
  "OU": 2012,
  "Ġappeared": 2013,
  "ards": 2014,
  "Ġmg": 2015,
  "Ġcause": 2016,
  "Ġtaking": 2017,
  "Ġyourself": 2018,
  "Ġeat": 2019,
  "Ġanim": 2020,
  "ilt": 2021,
  "Ġlaugh": 2022,
  "Ġthoughts": 2023,
  "Ġwild": 2024,
  "ues": 2025,
  "ik": 2026,
  "ĠBy": 2027,
  "Ġcat": 2028,
  "Ġfig": 2029,
  "Ġdaughter": 2030,
  "Ġlangu": 2031,
  "Ġdream": 2032,
  "Ġconv": 2033,
  "ustom": 2034,
  "Ġwis": 2035,
  "hold": 2036,
  "DE": 2037,
  "lled": 2038,
  "orm": 2039,
  "Ġchange": 2040,
  "Ġcertainly": 2041,
  "Ġlie": 2042,
  "Ġarri": 2043,
  "yond": 2044,
  "Ġimmedi": 2045,
  "Ġcut": 2046,
  "Ġafraid": 2047,
  "Ġfollowed": 2048,
  "Ġwalked": 2049,
  "mes": 2050,
  "where": 2051,
  "ented": 2052,
  "Ġopened": 2053,
  "Ġmot": 2054,
  "iling": 2055,
  "erm": 2056,
  "ires": 2057,
  "ush": 2058,
  "eg": 2059,
  "Ġmove": 2060,
  "NORA": 2061,
  "ony": 2062,
  "Ġlim": 2063,
  "Ġopinion": 2064,
  "Ġlived": 2065,
  "_,": 2066,
  "urch": 2067,
  "Ġut": 2068,
  "Ġsaying": 2069,
  "lu": 2070,
  "Ġnecessary": 2071,
  "Ġmakes": 2072,
  "Ġliving": 2073,
  "eas": 2074,
  "Ġphilosop": 2075,
  "Ġru": 2076,
  "Ġdesire": 2077,
  "room": 2078,
  "Ġdoing": 2079,
  "pping": 2080,
  "Ġdanger": 2081,
  "ex": 2082,
  "Ġforth": 2083,
  "Ġneither": 2084,
  "oint": 2085,
  "Ġhung": 2086,
  "Ġtem": 2087,
  "Ġacross": 2088,
  "Ġtwenty": 2089,
  "ots": 2090,
  "How": 2091,
  "Ġhappy": 2092,
  "ement": 2093,
  "Ġschool": 2094,
  "Ġeng": 2095,
  "Ġideas": 2096,
  "Ġdeal": 2097,
  "rigin": 2098,
  "ster": 2099,
  "Ġquar": 2100,
  "ĠChrist": 2101,
  "Ġrose": 2102,
  "uct": 2103,
  "joy": 2104,
  "ĠLord": 2105,
  "Ġvisit": 2106,
  "Ġcomfort": 2107,
  "As": 2108,
  "ley": 2109,
  "rat": 2110,
  "what": 2111,
  "Ġsurpr": 2112,
  "Ġintell": 2113,
  "iol": 2114,
  "Ġlad": 2115,
  "antly": 2116,
  "Ġchair": 2117,
  "Ġdog": 2118,
  "Ġfeeling": 2119,
  "Ġcra": 2120,
  "ature": 2121,
  "Ġbeyond": 2122,
  "ĠAND": 2123,
  "ccess": 2124,
  "If": 2125,
  "Ġwrong": 2126,
  "par": 2127,
  "iter": 2128,
  "ushed": 2129,
  "Ġprov": 2130,
  "Ġsociety": 2131,
  "ky": 2132,
  "Ġsecret": 2133,
  "ĠCon": 2134,
  "Ġsold": 2135,
  "rt": 2136,
  "iment": 2137,
  "Ġship": 2138,
  "Ġcent": 2139,
  "owers": 2140,
  "Ġfing": 2141,
  "cend": 2142,
  "Ġdescri": 2143,
  "Ġgri": 2144,
  "ĠSir": 2145,
  "asure": 2146,
  "ĠEnglish": 2147,
  "Ġplain": 2148,
  "Ġborn": 2149,
  "sp": 2150,
  "Ġdress": 2151,
  "Ġbear": 2152,
  "Ġgovern": 2153,
  "icked": 2154,
  "ĠPe": 2155,
  "Ġmonth": 2156,
  "ĠOr": 2157,
  "ĠWhere": 2158,
  "Ġgreater": 2159,
  "Ġhorse": 2160,
  "Ã®": 2161,
  "IT": 2162,
  "Ġcontinued": 2163,
  "Ġfat": 2164,
  "Ġdidn": 2165,
  "...": 2166,
  "ighb": 2167,
  "idence": 2168,
  "Ġshad": 2169,
  "Ġmem": 2170,
  "Ġfine": 2171,
  "ny": 2172,
  "Ġorigin": 2173,
  "Ġcompan": 2174,
  "Ġfast": 2175,
  "Ġfaith": 2176,
  "Ġbright": 2177,
  "irm": 2178,
  "Ġcoll": 2179,
  "Ġbott": 2180,
  "Ġ'": 2181,
  "Ġdesp": 2182,
  "ries": 2183,
  "Ġexperience": 2184,
  "Why": 2185,
  "Ġenjoy": 2186,
  "Ġcal": 2187,
  "Ġpay": 2188,
  "ply": 2189,
  "Ġweak": 2190,
  "Ġhappened": 2191,
  "Ġcircum": 2192,
  "Ġbound": 2193,
  "Ġemb": 2194,
  "Ġdi": 2195,
  "US": 2196,
  "ously": 2197,
  "ney": 2198,
  "Ġtried": 2199,
  "Ġty": 2200,
  "utes": 2201,
  "Ġstraight": 2202,
  "ze": 2203,
  "you": 2204,
  "ones": 2205,
  "Ġduring": 2206,
  "ĠPet": 2207,
  "Ġport": 2208,
  "othes": 2209,
  "Ġyouth": 2210,
  "ĠDor": 2211,
  "Ġve": 2212,
  "Ġhardly": 2213,
  "Ġlate": 2214,
  "Ġcarried": 2215,
  "cient": 2216,
  "itten": 2217,
  "Ġcourt": 2218,
  "ils": 2219,
  "ĠAb": 2220,
  "arch": 2221,
  "ric": 2222,
  "Ġscar": 2223,
  "Ġglass": 2224,
  "Ġgreen": 2225,
  "Ġcommand": 2226,
  "Ġdin": 2227,
  "ening": 2228,
  "read": 2229,
  "ĠHere": 2230,
  "oured": 2231,
  "Now": 2232,
  "Ġvill": 2233,
  "Ġgard": 2234,
  "riage": 2235,
  "Ġrepe": 2236,
  "Ġslight": 2237,
  "els": 2238,
  "ises": 2239,
  "cell": 2240,
  "Ġhours": 2241,
  "Ġleng": 2242,
  "ize": 2243,
  "Ġpen": 2244,
  "olution": 2245,
  "cial": 2246,
  "Ġthinking": 2247,
  "Ġattempt": 2248,
  "een": 2249,
  "ugg": 2250,
  "dom": 2251,
  "Ġbene": 2252,
  "rench": 2253,
  "ĠThese": 2254,
  "Ġpal": 2255,
  "Ġpriv": 2256,
  "Ġglad": 2257,
  "rupt": 2258,
  "Ġcross": 2259,
  "Ġheavy": 2260,
  "Ġpeace": 2261,
  "rit": 2262,
  "Ġsuccess": 2263,
  "ĠYes": 2264,
  "Ġforward": 2265,
  "Ġneighb": 2266,
  "Ġpurpose": 2267,
  "ager": 2268,
  "Ġ2": 2269,
  "Ġcity": 2270,
  "night": 2271,
  ".âĢĶ": 2272,
  "Ġconcern": 2273,
  "Ġstory": 2274,
  "ĠWho": 2275,
  "Ġsoft": 2276,
  "Ġearly": 2277,
  "ĠOh": 2278,
  "Ġgrow": 2279,
  "str": 2280,
  "Ġnearly": 2281,
  "Ġexact": 2282,
  "aged": 2283,
  "ĠEd": 2284,
  "Ġled": 2285,
  "lem": 2286,
  "rible": 2287,
  "Ġcast": 2288,
  "ividual": 2289,
  "Ġmor": 2290,
  "Ġproceed": 2291,
  "So": 2292,
  "Ġsilence": 2293,
  "Ġslowly": 2294,
  "Ġnar": 2295,
  "ively": 2296,
  "Ġrev": 2297,
  "Ġinn": 2298,
  "lly": 2299,
  "Ġgod": 2300,
  "Ġentire": 2301,
  "Ġwit": 2302,
  "Ġlips": 2303,
  "IV": 2304,
  "Ġparts": 2305,
  "Ġdie": 2306,
  "cially": 2307,
  "udd": 2308,
  "RE": 2309,
  "Ġconsequ": 2310,
  "Ġimpress": 2311,
  "Ġconvers": 2312,
  "ploy": 2313,
  "IL": 2314,
  "At": 2315,
  "ĠEngland": 2316,
  "Ġjoy": 2317,
  "Ġlength": 2318,
  "ĠLe": 2319,
  "Ġeight": 2320,
  "oom": 2321,
  "ION": 2322,
  "Ġcorner": 2323,
  "ĠHen": 2324,
  "Ġtong": 2325,
  "olmes": 2326,
  "meric": 2327,
  "Ġinqu": 2328,
  "Ġbelong": 2329,
  "ically": 2330,
  "hood": 2331,
  "ĠII": 2332,
  "Ġkiss": 2333,
  "ger": 2334,
  "gar": 2335,
  "Ġincl": 2336,
  "Ġbreath": 2337,
  "ler": 2338,
  "Ġdeg": 2339,
  "well": 2340,
  "oose": 2341,
  "Ġoffic": 2342,
  "Ġimposs": 2343,
  "Ġtreat": 2344,
  "my": 2345,
  "Ġwhis": 2346,
  "ray": 2347,
  "Ġdoth": 2348,
  "Ġvirt": 2349,
  "roo": 2350,
  "Ġknows": 2351,
  "Ġlaid": 2352,
  "Ġimm": 2353,
  "Ġspo": 2354,
  "Ġphys": 2355,
  "Ġindividual": 2356,
  "Ġlanguage": 2357,
  "bert": 2358,
  "head": 2359,
  "ĠZ": 2360,
  "ples": 2361,
  "erc": 2362,
  "Ġhonour": 2363,
  "Ġmeant": 2364,
  "Ġdrink": 2365,
  "usion": 2366,
  "Ġdut": 2367,
  "Ġcoun": 2368,
  "iving": 2369,
  "Ġsend": 2370,
  "Ġyes": 2371,
  "âĢĶâĢĿ": 2372,
  "?âĢĻ": 2373,
  "Ġenem": 2374,
  "Ġadded": 2375,
  "Ġstopped": 2376,
  "Ġcaptain": 2377,
  "Ġcomplete": 2378,
  "eness": 2379,
  "ius": 2380,
  "ĠFrench": 2381,
  "Ġstanding": 2382,
  "Ġstreng": 2383,
  "Ġclass": 2384,
  "Ġafterwards": 2385,
  "Ġpoet": 2386,
  "Ġtrees": 2387,
  "Ġformer": 2388,
  "Ġshar": 2389,
  "Ġsmile": 2390,
  "Ġviol": 2391,
  "Ġfill": 2392,
  ".--": 2393,
  "Ġrich": 2394,
  "Ġcircumst": 2395,
  "ume": 2396,
  "ca": 2397,
  "ency": 2398,
  "ship": 2399,
  "Ġjo": 2400,
  "Ġreceived": 2401,
  "Ġarg": 2402,
  "Ġadvant": 2403,
  "val": 2404,
  "Ġwhatever": 2405,
  "alancy": 2406,
  "Ġwatch": 2407,
  "Ġpolit": 2408,
  "ĠCome": 2409,
  "Ġcry": 2410,
  "Ġleg": 2411,
  "Ġstreet": 2412,
  "Ã¨": 2413,
  "ĠGreg": 2414,
  "ĠTr": 2415,
  "Ġbless": 2416,
  "Ġfurther": 2417,
  "Ġpag": 2418,
  "Ġjudge": 2419,
  "Ġemploy": 2420,
  "Ġfront": 2421,
  "vell": 2422,
  "Not": 2423,
  "Ġtears": 2424,
  "resh": 2425,
  "kes": 2426,
  "Ġgetting": 2427,
  "Ġdifficult": 2428,
  "Ġchief": 2429,
  "Ġstranger": 2430,
  "Ġplease": 2431,
  "Ġmed": 2432,
  "kn": 2433,
  "ĠIN": 2434,
  "Ġremain": 2435,
  "pecially": 2436,
  "Ġforgot": 2437,
  "Ġeld": 2438,
  "vere": 2439,
  "Ġdied": 2440,
  "Ġaction": 2441,
  "ips": 2442,
  "Ġdread": 2443,
  "attle": 2444,
  "Ġblue": 2445,
  "Ġhist": 2446,
  "tered": 2447,
  "Ġda": 2448,
  "Ġ18": 2449,
  "Ġsad": 2450,
  "ĠAmeric": 2451,
  "ys": 2452,
  "ped": 2453,
  "Ġer": 2454,
  "agnan": 2455,
  "Ġbeauty": 2456,
  "gy": 2457,
  "Ġlearned": 2458,
  "Ġhig": 2459,
  "Ġsitting": 2460,
  "Ġrelig": 2461,
  "Ġago": 2462,
  "iddle": 2463,
  "Ġextre": 2464,
  "oes": 2465,
  "Ġpassion": 2466,
  "Ġimmediately": 2467,
  "ech": 2468,
  "mp": 2469,
  "Ġriver": 2470,
  "Ġwritten": 2471,
  "olute": 2472,
  "Ġinflu": 2473,
  "Ġfright": 2474,
  "bs": 2475,
  "Ã¡n": 2476,
  "ental": 2477,
  "Ġtast": 2478,
  "Ġresult": 2479,
  "Ġhot": 2480,
  "Ġattention": 2481,
  "Ġfif": 2482,
  "Ġconcl": 2483,
  "Ġdeterm": 2484,
  "Ġsett": 2485,
  "ĠHolmes": 2486,
  "HEL": 2487,
  "with": 2488,
  "wise": 2489,
  "ection": 2490,
  "Ġeasy": 2491,
  "ounded": 2492,
  "BE": 2493,
  "Ġund": 2494,
  "ĠFrom": 2495,
  "Ġeasily": 2496,
  "Ġpock": 2497,
  "LET": 2498,
  "Ġden": 2499,
  "amed": 2500,
  "Ġav": 2501,
  "Ġmerely": 2502,
  "Ġdinner": 2503,
  "esty": 2504,
  "Ġdoctor": 2505,
  "ET": 2506,
  "Ġbri": 2507,
  "ma": 2508,
  "ĠWill": 2509,
  "ille": 2510,
  "Ġalthough": 2511,
  "ORD": 2512,
  "ming": 2513,
  "Ġsin": 2514,
  "OW": 2515,
  "Ġforce": 2516,
  "Ġmag": 2517,
  "Ġfield": 2518,
  "Ġimpossible": 2519,
  "lig": 2520,
  "Ġpaper": 2521,
  "Ġsal": 2522,
  "Ġmount": 2523,
  "Ġdrew": 2524,
  "ron": 2525,
  "come": 2526,
  "rodu": 2527,
  "Ġstrength": 2528,
  "ĠFrance": 2529,
  "Art": 2530,
  "MR": 2531,
  "Ġcompl": 2532,
  "Ġsimple": 2533,
  "Ġentered": 2534,
  "Ġpun": 2535,
  "Ġfro": 2536,
  "ondon": 2537,
  "ton": 2538,
  "het": 2539,
  "su": 2540,
  "Ġminutes": 2541,
  "Ġtop": 2542,
  "Ġpict": 2543,
  "Ġmention": 2544,
  "Ġstruck": 2545,
  "Ġline": 2546,
  "AG": 2547,
  "Ġbecom": 2548,
  "Ġwin": 2549,
  "Ġhang": 2550,
  "ision": 2551,
  "Ġloud": 2552,
  "Ġsick": 2553,
  "Ġshut": 2554,
  "Ġsol": 2555,
  "Ġwarm": 2556,
  "ghed": 2557,
  "ork": 2558,
  "Ġcrow": 2559,
  "gan": 2560,
  "Ġcompany": 2561,
  "ald": 2562,
  "Ġfal": 2563,
  "Ġhill": 2564,
  "ĠHenry": 2565,
  "Ġfix": 2566,
  "Ġhall": 2567,
  "Ġfut": 2568,
  "Ġespecially": 2569,
  "anced": 2570,
  "Ġign": 2571,
  "con": 2572,
  "Ġexistence": 2573,
  "que": 2574,
  "olog": 2575,
  "Ġneck": 2576,
  "Ġevil": 2577,
  "KING": 2578,
  "Ã¬": 2579,
  "Ġturning": 2580,
  "spect": 2581,
  "irty": 2582,
  "Ġconn": 2583,
  "ĠDe": 2584,
  "Ġbooks": 2585,
  "ified": 2586,
  "Ġaccording": 2587,
  "ĠMad": 2588,
  "Ġgarden": 2589,
  "!âĢĻ": 2590,
  "ases": 2591,
  "Ġtrust": 2592,
  ".,": 2593,
  "AS": 2594,
  "MRS": 2595,
  "Ġlives": 2596,
  "St": 2597,
  "erence": 2598,
  "ounds": 2599,
  "Ġtry": 2600,
  "Ġbroken": 2601,
  "Ġexpression": 2602,
  "ashion": 2603,
  "ĠYet": 2604,
  "Ġtongue": 2605,
  "Ġcommun": 2606,
  "Ġenc": 2607,
  "Ġdistance": 2608,
  "Ġminute": 2609,
  "ĠPar": 2610,
  "ĠPro": 2611,
  "ĠTom": 2612,
  "Ġgoes": 2613,
  "ĠIII": 2614,
  "Ġann": 2615,
  "Ġburn": 2616,
  "arer": 2617,
  "Ġmoon": 2618,
  "Artagnan": 2619,
  "Ġbeginning": 2620,
  "ĠĠĠĠĠĠĠĠĠ": 2621,
  "rel": 2622,
  "idge": 2623,
  "For": 2624,
  "ned": 2625,
  "ĠLondon": 2626,
  "ument": 2627,
  "Ġappearance": 2628,
  "Ġmiss": 2629,
  "Ġcab": 2630,
  "liver": 2631,
  "iod": 2632,
  "Ġposition": 2633,
  "Ġpull": 2634,
  "Ġones": 2635,
  "app": 2636,
  "Ġfigure": 2637,
  "Ġseeing": 2638,
  "ĠRe": 2639,
  "ĠSome": 2640,
  "Ġconversation": 2641,
  "ored": 2642,
  "Ġfloor": 2643,
  "wo": 2644,
  "Ġmeaning": 2645,
  "Ġfollowing": 2646,
  "Ġsave": 2647,
  "Ġclothes": 2648,
  "Ġsilver": 2649,
  "iced": 2650,
  "Ġscarce": 2651,
  "Ġlabour": 2652,
  "'t": 2653,
  "Ġimpro": 2654,
  "Ġfun": 2655,
  "culiar": 2656,
  "Ġhabit": 2657,
  "ĠĠĠĠĠĠĠĠĠĠĠĠĠĠĠĠĠĠĠĠĠĠĠĠĠĠĠĠĠĠĠĠ": 2658,
  "Ġcand": 2659,
  "Ġprep": 2660,
  "gress": 2661,
  "ocked": 2662,
  "ĠSha": 2663,
  "itation": 2664,
  "Ġciv": 2665,
  "pid": 2666,
  "Ġincre": 2667,
  "ĠGood": 2668,
  "Ġfle": 2669,
  "Ġdom": 2670,
  "Ġourselves": 2671,
  "ected": 2672,
  "Ġblind": 2673,
  "inal": 2674,
  "Ġforget": 2675,
  "Ġtrouble": 2676,
  "Ġfight": 2677,
  "Ġdim": 2678,
  "ĠValancy": 2679,
  "ories": 2680,
  "Ġservice": 2681,
  "ĠWhich": 2682,
  "Ġhind": 2683,
  "stem": 2684,
  "idered": 2685,
  "Ġobjects": 2686,
  "Ġmiddle": 2687,
  "ogn": 2688,
  "Ġmaid": 2689,
  "ACK": 2690,
  "ĠChar": 2691,
  "Ġconscious": 2692,
  "Ġprot": 2693,
  "Ġcreature": 2694,
  "ellow": 2695,
  "ĠMan": 2696,
  "ieur": 2697,
  "Ġfortune": 2698,
  "iver": 2699,
  "Ġbuild": 2700,
  "which": 2701,
  "kind": 2702,
  "go": 2703,
  "how": 2704,
  "semb": 2705,
  "Ġparty": 2706,
  "Ġpeculiar": 2707,
  "Ġaccept": 2708,
  "Ġvalue": 2709,
  "Ġsuit": 2710,
  "Ġbird": 2711,
  "Ġthick": 2712,
  "ĠHar": 2713,
  "Ġlaws": 2714,
  "ĠFl": 2715,
  "orry": 2716,
  "uous": 2717,
  "Ġtalking": 2718,
  "Ġlaughed": 2719,
  "ĠAlice": 2720,
  "Ġsugg": 2721,
  "Ġsuggest": 2722,
  "she": 2723,
  "ners": 2724,
  "omer": 2725,
  "ishing": 2726,
  "rang": 2727,
  "iers": 2728,
  "Ġsky": 2729,
  "Ġreached": 2730,
  "Ġinstead": 2731,
  "ĠYour": 2732,
  "Ġshore": 2733,
  "Ġsimply": 2734,
  "aly": 2735,
  "Ġchurch": 2736,
  "atter": 2737,
  "Ġtouch": 2738,
  "ĠDon": 2739,
  "Ġextra": 2740,
  "Ġfancy": 2741,
  "ased": 2742,
  "ĠQu": 2743,
  "Ġspecies": 2744,
  "Ġperiod": 2745,
  "Ġchance": 2746,
  "cle": 2747,
  "Ġgrave": 2748,
  "Ġdel": 2749,
  "Ġears": 2750,
  "ulf": 2751,
  "Ġtoward": 2752,
  "ĠEm": 2753,
  "ibly": 2754,
  "Ġfamil": 2755,
  "On": 2756,
  "Ġwide": 2757,
  "Ġpure": 2758,
  "Ġscience": 2759,
  "Ġgen": 2760,
  "Ġobserved": 2761,
  "Ġnoble": 2762,
  "Ġpress": 2763,
  "Ġfurn": 2764,
  "Ġta": 2765,
  "ails": 2766,
  "ĠDr": 2767,
  "Ġ_[": 2768,
  "Ġbank": 2769,
  "ingu": 2770,
  "sc": 2771,
  "Ġpersons": 2772,
  "ses": 2773,
  "isted": 2774,
  "Ġremained": 2775,
  "Ġmiles": 2776,
  "osing": 2777,
  "PAR": 2778,
  "Ġdistinct": 2779,
  "Ġmarried": 2780,
  "fast": 2781,
  "cil": 2782,
  "Ġwine": 2783,
  "Ġgrew": 2784,
  "ouses": 2785,
  "Ġmal": 2786,
  "onsieur": 2787,
  "CT": 2788,
  "Ġtree": 2789,
  "Ġcustom": 2790,
  "ether": 2791,
  "bo": 2792,
  "Ġpost": 2793,
  "Ġpath": 2794,
  "MER": 2795,
  "Ġfuture": 2796,
  "hers": 2797,
  "Ġthird": 2798,
  "Ġquickly": 2799,
  "ĠPer": 2800,
  "ĠNew": 2801,
  "Ġmid": 2802,
  "ĠTO": 2803,
  "INS": 2804,
  "Ġgreatest": 2805,
  "Ġperfectly": 2806,
  "Ġinj": 2807,
  "Ġfit": 2808,
  "Ġoccur": 2809,
  "Ġvol": 2810,
  "Ġparent": 2811,
  "Ġwise": 2812,
  "Ġimportant": 2813,
  "Ġmaj": 2814,
  "Ġfalse": 2815,
  "Ġjour": 2816,
  "ĠCor": 2817,
  "Ġcondition": 2818,
  "ĠStep": 2819,
  "bered": 2820,
  "RI": 2821,
  "field": 2822,
  "Ġworse": 2823,
  "ĠAfter": 2824,
  "Ġmoved": 2825,
  "Ġrock": 2826,
  "Ġenter": 2827,
  "ts": 2828,
  "Ġreach": 2829,
  "Ġempt": 2830,
  "Ġfresh": 2831,
  "Ġgenerally": 2832,
  "Ġfavour": 2833,
  "Ġshoulder": 2834,
  "house": 2835,
  "Ġeduc": 2836,
  "Ġcontrary": 2837,
  "tis": 2838,
  "hens": 2839,
  "ĠThy": 2840,
  "ption": 2841,
  "Ġextreme": 2842,
  "irth": 2843,
  "Ġspeaking": 2844,
  "Ġgentlemen": 2845,
  "nest": 2846,
  "Ġabsolute": 2847,
  "ĠSe": 2848,
  "ME": 2849,
  "ĠBuck": 2850,
  "ĠMat": 2851,
  "Ġcarry": 2852,
  "Ġast": 2853,
  "look": 2854,
  "ourage": 2855,
  "Ġwait": 2856,
  "co": 2857,
  "Ġsli": 2858,
  "Ġmut": 2859,
  "now": 2860,
  "ĠEvery": 2861,
  "Ġfrequ": 2862,
  "Ġbread": 2863,
  "ousin": 2864,
  "Ġoblig": 2865,
  "Ġpra": 2866,
  "Ġsocial": 2867,
  "Ġsystem": 2868,
  "ike": 2869,
  "Ġfood": 2870,
  "teen": 2871,
  "Ġadvantage": 2872,
  "Ġsafe": 2873,
  "Ġsail": 2874,
  "Ġnation": 2875,
  "rooge": 2876,
  "Ġdepend": 2877,
  "Ġconsidered": 2878,
  "Ġspeech": 2879,
  "Ġraised": 2880,
  "Ġnotice": 2881,
  "Ġwrite": 2882,
  "Ġdogs": 2883,
  "eks": 2884,
  "Ġbroke": 2885,
  "appe": 2886,
  "ĠBr": 2887,
  "ĠThus": 2888,
  "Ġrepres": 2889,
  "Ġalt": 2890,
  "Ġid": 2891,
  "Ġplaces": 2892,
  "Ġlegs": 2893,
  "inite": 2894,
  "Ġsilent": 2895,
  "Ġmusic": 2896,
  "Ġstop": 2897,
  "Ġservant": 2898,
  "bing": 2899,
  "CON": 2900,
  "Ġtor": 2901,
  "Ġsingle": 2902,
  "Ġharm": 2903,
  "Ġlose": 2904,
  "ulty": 2905,
  "Ġentirely": 2906,
  "Ġdepart": 2907,
  "Ġshout": 2908,
  "mber": 2909,
  "Ġstrugg": 2910,
  "GINS": 2911,
  "acy": 2912,
  "under": 2913,
  "unk": 2914,
  "ĠBen": 2915,
  "Ġnote": 2916,
  "Ġlibert": 2917,
  "retched": 2918,
  "OT": 2919,
  "anch": 2920,
  "Ġsuffic": 2921,
  "Ġcivil": 2922,
  "leep": 2923,
  "Ġcrowd": 2924,
  "Ġsteps": 2925,
  "ees": 2926,
  "ays": 2927,
  "Ġprobably": 2928,
  "Ġver": 2929,
  "rest": 2930,
  "iction": 2931,
  "Ġpale": 2932,
  "Ġmeth": 2933,
  "Ġant": 2934,
  "velop": 2935,
  "ĠMary": 2936,
  "ital": 2937,
  "Ġgiving": 2938,
  "Ġoccup": 2939,
  "Ġwaiting": 2940,
  "iny": 2941,
  "BER": 2942,
  "ĠGregor": 2943,
  "IGGINS": 2944,
  "Ġkan": 2945,
  "ception": 2946,
  "Ġhistory": 2947,
  "Ġoutside": 2948,
  "All": 2949,
  "Ġwear": 2950,
  "iding": 2951,
  "Ġmain": 2952,
  "!\"": 2953,
  "Ġsmo": 2954,
  "Ġspace": 2955,
  "roy": 2956,
  "Ġseek": 2957,
  "Ġpin": 2958,
  "aining": 2959,
  "Ġsepar": 2960,
  "ĠEx": 2961,
  "action": 2962,
  "uses": 2963,
  "Ġlooks": 2964,
  "Ġnice": 2965,
  "Ġstick": 2966,
  "Ġproud": 2967,
  "ibility": 2968,
  "Ġspite": 2969,
  "Ġlif": 2970,
  "Ġconfess": 2971,
  "Ġmonths": 2972,
  "erous": 2973,
  "Ġiron": 2974,
  "Ġexcell": 2975,
  "Ġseven": 2976,
  "Ġcompanion": 2977,
  "Ġtend": 2978,
  "Ġlater": 2979,
  "Ġsav": 2980,
  "Ġdistingu": 2981,
  "Ġduty": 2982,
  "known": 2983,
  "ĠCa": 2984,
  "Ġbelow": 2985,
  "Ġpiece": 2986,
  "Ġnose": 2987,
  "umed": 2988,
  "Ġboard": 2989,
  "Ġanx": 2990,
  "Ġrunning": 2991,
  "Ġnak": 2992,
  "Ġgovernment": 2993,
  "ĠLORD": 2994,
  "Ġtone": 2995,
  "Ġhealth": 2996,
  "Ġdare": 2997,
  "hest": 2998,
  "Ġcolour": 2999,
  "Ġinfluence": 3000,
  "Ġsuc": 3001,
  "Ġsucceed": 3002,
  "Ġrecogn": 3003,
  "Ġwalls": 3004,
  "ERN": 3005,
  "Ġguard": 3006,
  "eds": 3007,
  "reet": 3008,
  "host": 3009,
  "DY": 3010,
  "ruct": 3011,
  "Ġcru": 3012,
  "miss": 3013,
  "Ġsharp": 3014,
  "ĠXX": 3015,
  "Ġthin": 3016,
  "Ġteach": 3017,
  "Ġancient": 3018,
  "Ġboys": 3019,
  "ander": 3020,
  "ns": 3021,
  "Ġpap": 3022,
  "orses": 3023,
  "Ġstarted": 3024,
  "RA": 3025,
  "Ġloved": 3026,
  "Ġdelic": 3027,
  "Ġbare": 3028,
  "Ġnames": 3029,
  "Ġeffort": 3030,
  "Ġusual": 3031,
  "Ġmurd": 3032,
  "Ġwarn": 3033,
  "IX": 3034,
  "Ġrul": 3035,
  "Ġbeha": 3036,
  "ration": 3037,
  "lo": 3038,
  "ishment": 3039,
  "Ġcontro": 3040,
  "Ġequal": 3041,
  "uly": 3042,
  "enture": 3043,
  "Ġjustice": 3044,
  "Ġbeast": 3045,
  "Ġsorrow": 3046,
  "race": 3047,
  "hel": 3048,
  "Ġways": 3049,
  "HAM": 3050,
  "Ġlatter": 3051,
  "lace": 3052,
  "Ġwouldn": 3053,
  "Ġgrand": 3054,
  "ĠMay": 3055,
  "ICK": 3056,
  "Ġallowed": 3057,
  "Ġimper": 3058,
  "iety": 3059,
  "ĠAd": 3060,
  "Ġgrace": 3061,
  "lock": 3062,
  "Ġenv": 3063,
  "Ġsword": 3064,
  "ogether": 3065,
  "Ġprivate": 3066,
  "arm": 3067,
  "Of": 3068,
  "Ġletters": 3069,
  "rent": 3070,
  "Ġfingers": 3071,
  "Ġlikely": 3072,
  "ESS": 3073,
  "ortun": 3074,
  "Ġfreed": 3075,
  "Ġignor": 3076,
  "Ġwished": 3077,
  "Ġpocket": 3078,
  "noon": 3079,
  "urally": 3080,
  "tha": 3081,
  "rop": 3082,
  "Ġstir": 3083,
  "ĠIV": 3084,
  "Ġfan": 3085,
  "Ġliberty": 3086,
  "Ġvan": 3087,
  "Ġcouldn": 3088,
  "Ġteeth": 3089,
  "Ġdemand": 3090,
  "ĠWH": 3091,
  "Ġinstance": 3092,
  "Ġagree": 3093,
  "Ġinstant": 3094,
  "Ġacquaint": 3095,
  "Ġeager": 3096,
  "Ġnur": 3097,
  "Ġdirection": 3098,
  "ĠHall": 3099,
  "Ġlies": 3100,
  "Ġresp": 3101,
  "ainted": 3102,
  "Ġhop": 3103,
  "Ġfly": 3104,
  "Ġbroad": 3105,
  "Ġcurious": 3106,
  "Ġexactly": 3107,
  "cape": 3108,
  "Ġexpected": 3109,
  "Ġgrou": 3110,
  "Ġdarkness": 3111,
  "Ġdrawn": 3112,
  "ĠPeter": 3113,
  "ĠHomer": 3114,
  "hered": 3115,
  "Ġdifficulty": 3116,
  "Ġfashion": 3117,
  "Ġpleasant": 3118,
  "Is": 3119,
  "oved": 3120,
  "Ġvain": 3121,
  "Ġbeside": 3122,
  "Ġmemory": 3123,
  "rect": 3124,
  "Ġisland": 3125,
  "Ġstudy": 3126,
  "Ġsitu": 3127,
  "Ġweek": 3128,
  "Ġbesides": 3129,
  "ĠOur": 3130,
  "ĠJoe": 3131,
  "mat": 3132,
  "Ġjourney": 3133,
  "Ġsake": 3134,
  "Ġrapid": 3135,
  "Ġplaced": 3136,
  "oses": 3137,
  "ĠPrince": 3138,
  "Ġstone": 3139,
  "Ġdifference": 3140,
  "Ġgirls": 3141,
  "ancing": 3142,
  "ament": 3143,
  "Ġpresence": 3144,
  "Ġrob": 3145,
  "ĠPh": 3146,
  "ability": 3147,
  "Ġ3": 3148,
  "rant": 3149,
  "vey": 3150,
  "imate": 3151,
  "Ġcheer": 3152,
  "Ġspoken": 3153,
  "zz": 3154,
  "ĠScrooge": 3155,
  "ribut": 3156,
  "Ġcho": 3157,
  "was": 3158,
  "ĠEur": 3159,
  "umble": 3160,
  "Ġgives": 3161,
  "Ġtaste": 3162,
  "Ġestab": 3163,
  "Ġhonest": 3164,
  "oe": 3165,
  "gain": 3166,
  "Ġutter": 3167,
  "ear": 3168,
  "Ġintrodu": 3169,
  "oned": 3170,
  "ĠCan": 3171,
  "ĠCount": 3172,
  "Ġpop": 3173,
  "Ġdegree": 3174,
  "With": 3175,
  "ien": 3176,
  "Ġcaught": 3177,
  "Ġce": 3178,
  "Ġhither": 3179,
  "bl": 3180,
  "Ġdisg": 3181,
  "Ġtall": 3182,
  "Ah": 3183,
  "morrow": 3184,
  "Ġprofess": 3185,
  "ato": 3186,
  "eunt": 3187,
  "Ġallow": 3188,
  "Ġfaint": 3189,
  "ĠEven": 3190,
  "Ġassist": 3191,
  "ux": 3192,
  "ivers": 3193,
  "Ġimagination": 3194,
  "pered": 3195,
  "uded": 3196,
  "Ġbreakfast": 3197,
  "Ġelder": 3198,
  "Ġenemy": 3199,
  "Ġterrible": 3200,
  "IRST": 3201,
  "Ġemp": 3202,
  "gment": 3203,
  "bly": 3204,
  "Do": 3205,
  "Ġtakes": 3206,
  "Ġmethod": 3207,
  "Ġremembered": 3208,
  "Ġdam": 3209,
  "Ġunless": 3210,
  "erve": 3211,
  "Don": 3212,
  "Ġvarious": 3213,
  "Ġimagine": 3214,
  "Ġgrey": 3215,
  "orted": 3216,
  "Ġyellow": 3217,
  "iring": 3218,
  "Ġempty": 3219,
  "fer": 3220,
  "VI": 3221,
  "hand": 3222,
  "eav": 3223,
  "laimed": 3224,
  "Ġafternoon": 3225,
  "ĠSy": 3226,
  "Ġnarrow": 3227,
  "Ġconce": 3228,
  "Ġmotion": 3229,
  "ĠSh": 3230,
  "Ġpoem": 3231,
  "overn": 3232,
  "osity": 3233,
  "Ġladies": 3234,
  "idently": 3235,
  "iently": 3236,
  "Ġfirm": 3237,
  "Ġthank": 3238,
  "Ġpassage": 3239,
  "ĠEurope": 3240,
  "Ġbod": 3241,
  "HAMLET": 3242,
  "itive": 3243,
  "elve": 3244,
  "Ġclosed": 3245,
  "Ġnoise": 3246,
  "Ġhorses": 3247,
  "clock": 3248,
  "no": 3249,
  "Ġbox": 3250,
  "Ġlean": 3251,
  "iant": 3252,
  "Ġsnow": 3253,
  "Ġprince": 3254,
  "Exit": 3255,
  "Exeunt": 3256,
  "Ġobserv": 3257,
  "OO": 3258,
  "Ġneg": 3259,
  "sy": 3260,
  "Ġproperty": 3261,
  "Ġplan": 3262,
  "Ġbitter": 3263,
  "Ġcircumstances": 3264,
  "ĠWas": 3265,
  "Ġbold": 3266,
  "Ġsummer": 3267,
  "illa": 3268,
  "ĠLady": 3269,
  "Ġquestions": 3270,
  "Ġlying": 3271,
  "olved": 3272,
  "Ġtrying": 3273,
  "aming": 3274,
  "ague": 3275,
  "itary": 3276,
  "Ġshadow": 3277,
  "iyÃ¡ng": 3278,
  "Ġsorry": 3279,
  "Ġmass": 3280,
  "ram": 3281,
  "Ġorgan": 3282,
  "Ġaffection": 3283,
  "Ġopportun": 3284,
  "Ġattend": 3285,
  "oly": 3286,
  "Ġbreast": 3287,
  "Ġvirtue": 3288,
  "ater": 3289,
  "Ġgall": 3290,
  "Ġstro": 3291,
  "An": 3292,
  "Ġtroub": 3293,
  "Ġdiscuss": 3294,
  "Be": 3295,
  "chief": 3296,
  "NE": 3297,
  "?\"": 3298,
  "Ġcost": 3299,
  "Ġcloud": 3300,
  "Ġdust": 3301,
  "ĠĠĠĠĠĠĠĠĠĠĠĠĠ": 3302,
  "Ġodd": 3303,
  "Ġpleased": 3304,
  "Ġhouses": 3305,
  "Ġclean": 3306,
  "Ġdevil": 3307,
  "DU": 3308,
  "ables": 3309,
  "Ġintellig": 3310,
  "Ġfault": 3311,
  "Ġrepeated": 3312,
  "Ġthro": 3313,
  "Ġshame": 3314,
  "Ġhurt": 3315,
  "mit": 3316,
  "ĠPl": 3317,
  "Ġnag": 3318,
  "Ġtemper": 3319,
  "aken": 3320,
  "Ġscarcely": 3321,
  "Ġpity": 3322,
  "Ġleaves": 3323,
  "Al": 3324,
  "Ġheads": 3325,
  "gl": 3326,
  "itc": 3327,
  "Ġbeat": 3328,
  "cked": 3329,
  "Ġgaz": 3330,
  "uge": 3331,
  "ĠMart": 3332,
  "Ġball": 3333,
  "Ġangry": 3334,
  "Ġsupposed": 3335,
  "ourse": 3336,
  "Ġrise": 3337,
  "isc": 3338,
  "ĠThee": 3339,
  "formed": 3340,
  "lling": 3341,
  "Ġhero": 3342,
  "raw": 3343,
  "Ġconduct": 3344,
  "Ġappre": 3345,
  "Ġoffice": 3346,
  "Ġaston": 3347,
  "Ġaltogether": 3348,
  "Ġwalking": 3349,
  "Ġaddress": 3350,
  "!âĢĶ": 3351,
  "Ġbottom": 3352,
  "Ġexample": 3353,
  "Ġobt": 3354,
  "SC": 3355,
  "ify": 3356,
  "Ġdevelop": 3357,
  "AD": 3358,
  "Ġcou": 3359,
  "reed": 3360,
  "Ġstock": 3361,
  "His": 3362,
  "zen": 3363,
  "eer": 3364,
  "asons": 3365,
  "Ġfru": 3366,
  "HIGGINS": 3367,
  "Ġprec": 3368,
  "Ġfond": 3369,
  "ilar": 3370,
  "Ġuncle": 3371,
  "Ġmankind": 3372,
  "Ġunderstood": 3373,
  "Ġhost": 3374,
  "Ġbrown": 3375,
  "Ġchanged": 3376,
  "arily": 3377,
  "Ġfixed": 3378,
  "Ġminds": 3379,
  "Ġopinions": 3380,
  "Ġendeav": 3381,
  "Ġasleep": 3382,
  "Ġtired": 3383,
  "Ġbow": 3384,
  "Ġphysical": 3385,
  "itiz": 3386,
  "ĠisÃ¡ng": 3387,
  "lished": 3388,
  "Ġdue": 3389,
  "Ġexerc": 3390,
  "Ġtwice": 3391,
  "ĠRome": 3392,
  "Ġpowers": 3393,
  "son": 3394,
  "Ġcrit": 3395,
  "Ġhide": 3396,
  "Ġserious": 3397,
  "ĠGe": 3398,
  "Ġunf": 3399,
  "Ġsong": 3400,
  "Ġhappen": 3401,
  "Ġthrew": 3402,
  "Ġpolitical": 3403,
  "Ġslave": 3404,
  "ĠThan": 3405,
  "ĠBra": 3406,
  "ĠMore": 3407,
  "Ġliter": 3408,
  "Ġmodern": 3409,
  "liz": 3410,
  "Ġintellect": 3411,
  "oman": 3412,
  "00": 3413,
  "Ġdiscovered": 3414,
  "Ġreading": 3415,
  "Ġordinary": 3416,
  "Ġundert": 3417,
  "Ġcovered": 3418,
  "stand": 3419,
  "Ġbirth": 3420,
  "Ġjump": 3421,
  "Ġdrawing": 3422,
  "Ġcard": 3423,
  "Ġnaturally": 3424,
  "Ġla": 3425,
  "sed": 3426,
  "estic": 3427,
  "ĠMont": 3428,
  "Ġinform": 3429,
  "Ġmeasure": 3430,
  "orth": 3431,
  "erman": 3432,
  "Ġforgotten": 3433,
  "Ġcases": 3434,
  "ĠRob": 3435,
  "oot": 3436,
  "Ġshook": 3437,
  "Ġbab": 3438,
  "uke": 3439,
  "ternal": 3440,
  "ĠGo": 3441,
  "MAC": 3442,
  "iddhar": 3443,
  "iddhartha": 3444,
  "Ġprove": 3445,
  "Ġgar": 3446,
  "Ġlower": 3447,
  "Ġauthority": 3448,
  "Ġhate": 3449,
  "ĠCl": 3450,
  "Ġrace": 3451,
  "Ġseat": 3452,
  "Ġbelief": 3453,
  "ĠGre": 3454,
  "ĠPick": 3455,
  "Ġprocess": 3456,
  "Ġavo": 3457,
  "Ġgro": 3458,
  "Ġhy": 3459,
  "Ġtwelve": 3460,
  "Ġspirits": 3461,
  "Ġnobody": 3462,
  "Ġaware": 3463,
  "Ġshowed": 3464,
  "Ġstation": 3465,
  "Ġfilled": 3466,
  "ker": 3467,
  "Ġdescend": 3468,
  "osp": 3469,
  "Ġliked": 3470,
  "Ġpride": 3471,
  "ĠHave": 3472,
  "Ġcoat": 3473,
  "ĠSuch": 3474,
  "Ġrid": 3475,
  "Ġoffer": 3476,
  "Ġpi": 3477,
  "Ġpassing": 3478,
  "Ġleaving": 3479,
  "jo": 3480,
  "ium": 3481,
  "Ġprinciple": 3482,
  "Ġhappiness": 3483,
  "Ġshoulders": 3484,
  "Ġpoints": 3485,
  "Ġgate": 3486,
  "itable": 3487,
  "ales": 3488,
  "isters": 3489,
  "aving": 3490,
  "sha": 3491,
  "Ġcalm": 3492,
  "Ġfier": 3493,
  "Ġwindows": 3494,
  "JACK": 3495,
  "lection": 3496,
  "Ġmas": 3497,
  "uted": 3498,
  "Ġcler": 3499,
  "Ġcop": 3500,
  "Ġmoral": 3501,
  "Ġspring": 3502,
  "Ġapparent": 3503,
  "ina": 3504,
  "ĠGovern": 3505,
  "FIRST": 3506,
  "Ã¡y": 3507,
  "RAN": 3508,
  "AGO": 3509,
  "Ġrough": 3510,
  "Ġvast": 3511,
  "Ġrank": 3512,
  "just": 3513,
  "Ġsomewhat": 3514,
  "Ġspeed": 3515,
  "Ġfaces": 3516,
  "Ġquant": 3517,
  "Ġforest": 3518,
  "othy": 3519,
  "Ġadmir": 3520,
  "nat": 3521,
  "Ġformed": 3522,
  "Ġrule": 3523,
  "ĠParis": 3524,
  "hant": 3525,
  "idden": 3526,
  "ĠGree": 3527,
  "Ġtransl": 3528,
  "Ġgods": 3529,
  "Ġknowing": 3530,
  "ral": 3531,
  "Ġcharge": 3532,
  "Ġreply": 3533,
  "Ġdecided": 3534,
  "erable": 3535,
  "Ġreflect": 3536,
  "Ġnine": 3537,
  "otion": 3538,
  "Ġbag": 3539,
  "Ġkilled": 3540,
  "Ã¨s": 3541,
  "Ġeducation": 3542,
  "Ġvict": 3543,
  "chan": 3544,
  "Ġdestroy": 3545,
  "rs": 3546,
  "ping": 3547,
  "Ġputting": 3548,
  "Ġmort": 3549,
  "Ġtender": 3550,
  "Ġstar": 3551,
  "Where": 3552,
  "Ġdisappe": 3553,
  "Ġwatched": 3554,
  "BETH": 3555,
  "IAGO": 3556,
  "Ġshape": 3557,
  "Ġmarry": 3558,
  "Ġwriting": 3559,
  "Ġur": 3560,
  "Ġexcellent": 3561,
  "Ġsand": 3562,
  "Ġcow": 3563,
  "gli": 3564,
  "Ġoriginal": 3565,
  "Ġextraord": 3566,
  "Ġarrived": 3567,
  "Ġproport": 3568,
  "Ġanimal": 3569,
  "Ġwond": 3570,
  "stairs": 3571,
  "Ġder": 3572,
  "Ġboat": 3573,
  "LADY": 3574,
  "aries": 3575,
  "Ġinde": 3576,
  "pet": 3577,
  "ashed": 3578,
  "Ġfallen": 3579,
  "Ġkey": 3580,
  "Ġfla": 3581,
  "tering": 3582,
  "Ġdressed": 3583,
  "Ġring": 3584,
  "ĠFather": 3585,
  "ĠStreet": 3586,
  "Ġtrain": 3587,
  "esh": 3588,
  "Ġreck": 3589,
  "iyÃ¡": 3590,
  "ĠSam": 3591,
  "Ġcomb": 3592,
  "ĠĠĠĠĠĠĠĠĠĠĠĠ": 3593,
  "Ġfeelings": 3594,
  "eping": 3595,
  "Ġengaged": 3596,
  "Here": 3597,
  "Ġunknown": 3598,
  "Ġrub": 3599,
  "Ġgrief": 3600,
  "ĠComm": 3601,
  "Ġpair": 3602,
  "face": 3603,
  "Ġcruel": 3604,
  "Ġpicture": 3605,
  "Ġservants": 3606,
  "pon": 3607,
  "Ġvillage": 3608,
  "Ġsurprise": 3609,
  "soci": 3610,
  "Ġguess": 3611,
  "Ġbent": 3612,
  "aled": 3613,
  "Ġapart": 3614,
  "ENE": 3615,
  "CH": 3616,
  "Ġpersonal": 3617,
  "Ġfail": 3618,
  "Ġfreedom": 3619,
  "Ġimportance": 3620,
  "Ġcarriage": 3621,
  "Ġpack": 3622,
  "Let": 3623,
  "hal": 3624,
  "LES": 3625,
  "Ġappears": 3626,
  "aff": 3627,
  "Ġentertain": 3628,
  "der": 3629,
  "eal": 3630,
  "One": 3631,
  "Ġceas": 3632,
  "Ġprinciples": 3633,
  "Ġpet": 3634,
  "Ġmater": 3635,
  "By": 3636,
  "Ġpaid": 3637,
  "there": 3638,
  "uments": 3639,
  "Ġweight": 3640,
  "âĢľâĢĺ": 3641,
  "Ġparents": 3642,
  "owgli": 3643,
  "bits": 3644,
  "com": 3645,
  "isp": 3646,
  "Ġescape": 3647,
  "will": 3648,
  "Ġcarefully": 3649,
  "VII": 3650,
  "OM": 3651,
  "QU": 3652,
  "GERN": 3653,
  "GERNON": 3654,
  "Ġwisdom": 3655,
  "Ġmess": 3656,
  "ites": 3657,
  "wood": 3658,
  "Ġacquaintance": 3659,
  "Ġinha": 3660,
  "lend": 3661,
  "ests": 3662,
  "Ġprison": 3663,
  "Ġbell": 3664,
  "Ġspect": 3665,
  "Ġspot": 3666,
  "ALGERNON": 3667,
  "Ġkeeping": 3668,
  "arling": 3669,
  "itchen": 3670,
  "Ġfifty": 3671,
  "Ġthirty": 3672,
  "Ġ4": 3673,
  "Ġnecessity": 3674,
  "ratic": 3675,
  "ĠStephen": 3676,
  "Ġshalt": 3677,
  "Ġunderstanding": 3678,
  "Ġfinished": 3679,
  "Ġsatisfied": 3680,
  "Ġimpression": 3681,
  "Ġforms": 3682,
  "Ġdull": 3683,
  "raham": 3684,
  "ĠStates": 3685,
  "INDE": 3686,
  "Ġnews": 3687,
  "Ġspent": 3688,
  "pper": 3689,
  "Who": 3690,
  "Ġnearer": 3691,
  "Ġmatters": 3692,
  "Tis": 3693,
  "Ġquarter": 3694,
  "Ġbecomes": 3695,
  "Ġserve": 3696,
  "Ġni": 3697,
  "LLO": 3698,
  "Ã³ng": 3699,
  "Ġbattle": 3700,
  "Ġrepresent": 3701,
  "ruction": 3702,
  "Ġinteresting": 3703,
  "Ġacquainted": 3704,
  "Ġanyone": 3705,
  "Ġapproach": 3706,
  "Ġblow": 3707,
  "Ġgrass": 3708,
  "Ġwonderful": 3709,
  "era": 3710,
  "Ġ15": 3711,
  "oted": 3712,
  "ana": 3713,
  "OTHE": 3714,
  "Ġworst": 3715,
  "pes": 3716,
  "Ġlearning": 3717,
  "orough": 3718,
  "Ġtype": 3719,
  "Ġdesign": 3720,
  "ĠAm": 3721,
  "Ġsurprised": 3722,
  "resp": 3723,
  "than": 3724,
  "gged": 3725,
  "Ġdropped": 3726,
  "ogra": 3727,
  "ĠRuss": 3728,
  "ois": 3729,
  "ĠAre": 3730,
  "rees": 3731,
  "Ġcitiz": 3732,
  "ARD": 3733,
  "ĠLINDE": 3734,
  "ĠhindÃ®": 3735,
  "Ġworks": 3736,
  "Ġafford": 3737,
  "Ġinnoc": 3738,
  "ldom": 3739,
  "Ġattack": 3740,
  ".)": 3741,
  "Ġearnest": 3742,
  "Ġsurr": 3743,
  "ĠCaptain": 3744,
  "ĠQue": 3745,
  "Ġflowers": 3746,
  "Ġspread": 3747,
  "Ġkitchen": 3748,
  "Ġsenses": 3749,
  "ama": 3750,
  "ala": 3751,
  "Ġevidently": 3752,
  "VIII": 3753,
  "Ġparticularly": 3754,
  "ĠMa": 3755,
  "Ġmel": 3756,
  "set": 3757,
  "cr": 3758,
  "Ġsmell": 3759,
  "Ã¦": 3760,
  "wing": 3761,
  "Ġthine": 3762,
  "Ã³n": 3763,
  "ĠOliver": 3764,
  "OTHELLO": 3765,
  "ppy": 3766,
  "DON": 3767,
  "ops": 3768,
  "Ġhandsome": 3769,
  "Ġsituation": 3770,
  "Ġholding": 3771,
  "Ġuseful": 3772,
  "Ġcourage": 3773,
  "cher": 3774,
  "ĠGu": 3775,
  "ĠMonsieur": 3776,
  "Ġpossession": 3777,
  "OOK": 3778,
  "alt": 3779,
  "Ġpresently": 3780,
  "Ġmanners": 3781,
  "ĠCr": 3782,
  "enance": 3783,
  "Ġsmiled": 3784,
  "Ġburst": 3785,
  "Ġexclaimed": 3786,
  "Ġstreets": 3787,
  "Ġsons": 3788,
  "ĠHel": 3789,
  "Ġsuffer": 3790,
  "Ġcuri": 3791,
  "Ġtruly": 3792,
  "Ġseldom": 3793,
  "Ġsusp": 3794,
  "Ġcrown": 3795,
  "rid": 3796,
  "Miss": 3797,
  "Ġpromise": 3798,
  "Ġfamiliar": 3799,
  "Ġhigher": 3800,
  "Ġsubst": 3801,
  "Ġlovely": 3802,
  "Ġworthy": 3803,
  "Ġnations": 3804,
  "MON": 3805,
  "ata": 3806,
  "Ġwicked": 3807,
  "enth": 3808,
  "Ġjudgment": 3809,
  "Mrs": 3810,
  "Ġmaterial": 3811,
  "mas": 3812,
  "Ġextraordinary": 3813,
  "Ġpersu": 3814,
  "Ġequally": 3815,
  "Ġoppos": 3816,
  "Ġglance": 3817,
  "Ġstream": 3818,
  "Ġtravell": 3819,
  "ĠAy": 3820,
  "Ġrare": 3821,
  "lov": 3822,
  "ĠDorothy": 3823,
  "SCENE": 3824,
  "ĠĠĠĠĠĠĠĠĠĠ": 3825,
  "Ġdisposition": 3826,
  "ading": 3827,
  "Ġtalked": 3828,
  "Ġopportunity": 3829,
  "Ġlot": 3830,
  "part": 3831,
  "anc": 3832,
  "Ġnoticed": 3833,
  "ĠEliz": 3834,
  "Ġwel": 3835,
  "Ġobliged": 3836,
  "ades": 3837,
  "Ġremarked": 3838,
  "Ġsoldiers": 3839,
  "Ġdistur": 3840,
  "Ġmur": 3841,
  "ĠWood": 3842,
  "Ġconstit": 3843,
  "Ġpolic": 3844,
  "ĠSiddhartha": 3845,
  "Ġcult": 3846,
  "range": 3847,
  "Ġsuperior": 3848,
  "tle": 3849,
  "ĠMor": 3850,
  "aced": 3851,
  "Ġwore": 3852,
  "Ġcred": 3853,
  "Ġbelieved": 3854,
  "place": 3855,
  "col": 3856,
  "acc": 3857,
  "Ġfra": 3858,
  "chant": 3859,
  "Ġflesh": 3860,
  "ICH": 3861,
  "Ġloss": 3862,
  "Ġconditions": 3863,
  "Ġscene": 3864,
  "ulous": 3865,
  "Ġamongst": 3866,
  "Ġwinter": 3867,
  "Ġrain": 3868,
  "aped": 3869,
  "Ġlam": 3870,
  ").": 3871,
  "esides": 3872,
  "lemn": 3873,
  "Ġcamp": 3874,
  "Ġwid": 3875,
  "essel": 3876,
  "Ġphilosophy": 3877,
  "ocratic": 3878,
  "RY": 3879,
  "Ġbeneath": 3880,
  "ĠTheir": 3881,
  "erved": 3882,
  "Ġ[_": 3883,
  "Ġdiscover": 3884,
  "Ġusually": 3885,
  "Ġoffered": 3886,
  "acity": 3887,
  "Ġtea": 3888,
  "Ġdoors": 3889,
  "ardon": 3890,
  "Ġsmoke": 3891,
  "rose": 3892,
  "EL": 3893,
  "otty": 3894,
  "Ġdecla": 3895,
  "Ġotherwise": 3896,
  "Ġalive": 3897,
  "Ġadvice": 3898,
  "Ġpraise": 3899,
  "Ġsour": 3900,
  "Ġindepend": 3901,
  "Ġyours": 3902,
  "ole": 3903,
  "âĢĶâĢľ": 3904,
  "Ġdreadful": 3905,
  "Ġsteam": 3906,
  "Ġswift": 3907,
  "ĠState": 3908,
  "ĠCON": 3909,
  "bon": 3910,
  "Ġgloom": 3911,
  "iments": 3912,
  "Ġneighbour": 3913,
  "upid": 3914,
  "Ġgroup": 3915,
  "Ġreceive": 3916,
  "Ġprevent": 3917,
  "utation": 3918,
  "Ġcontem": 3919,
  "anqu": 3920,
  "Ġaim": 3921,
  "bers": 3922,
  "Ġpit": 3923,
  "Ġpieces": 3924,
  "Ġargument": 3925,
  "Ġmarriage": 3926,
  "Ġsides": 3927,
  "ĠNever": 3928,
  "ĠPres": 3929,
  "Ġhence": 3930,
  "fortun": 3931,
  "net": 3932,
  "vi": 3933,
  "Ġscre": 3934,
  "Come": 3935,
  "iles": 3936,
  "Ġcommunic": 3937,
  "mon": 3938,
  "arest": 3939,
  "Ġgrowing": 3940,
  "Ġanimals": 3941,
  "Ġquietly": 3942,
  "Ġcott": 3943,
  "ogg": 3944,
  "Ġcousin": 3945,
  "hip": 3946,
  "ĠVI": 3947,
  "ointed": 3948,
  "Ġsolemn": 3949,
  "Ġcontent": 3950,
  "ĠSee": 3951,
  "af": 3952,
  "por": 3953,
  "ĠSund": 3954,
  "ĠDes": 3955,
  "ĠRev": 3956,
  "Ġkinds": 3957,
  "Ġi": 3958,
  "ggotty": 3959,
  "BEN": 3960,
  "Ã¢ng": 3961,
  "Ġamount": 3962,
  "Ġregular": 3963,
  "Ġgrad": 3964,
  "itated": 3965,
  "illy": 3966,
  "Ġfet": 3967,
  "Ġabsurd": 3968,
  "Ġreasons": 3969,
  "Ġbrief": 3970,
  "Ġmistress": 3971,
  "Ġsought": 3972,
  "lex": 3973,
  "Ã´": 3974,
  "Ġproble": 3975,
  "othe": 3976,
  "Ġsubjects": 3977,
  "Ġdry": 3978,
  "Ġpulled": 3979,
  "Ġdrive": 3980,
  "ĠNe": 3981,
  "Ġopposite": 3982,
  "Ġfrequently": 3983,
  "Ġinstinct": 3984,
  "rence": 3985,
  "Ġfully": 3986,
  "Ġain": 3987,
  "endy": 3988,
  "Ġwrote": 3989,
  "Ġrising": 3990,
  "Ġbehold": 3991,
  "Ġcuriosity": 3992,
  "lied": 3993,
  "Ġsettled": 3994,
  "Ġsecure": 3995,
  "Ġsimilar": 3996,
  "ĠTe": 3997,
  "Ġgolden": 3998,
  "Ġlaughing": 3999
}